{
  "version": "1.0",
  "truncation": {
    "direction": "Right",
    "max_length": 512,
    "strategy": "LongestFirst",
    "stride": 0
  },
  "padding": {
    "strategy": {
      "Fixed": 512
    },
    "direction": "Right",
    "pad_to_multiple_of": null,
    "pad_id": 0,
    "pad_type_id": 0,
    "pad_token": "[PAD]"
  },
  "added_tokens": [
    {
      "id": 0,
      "content": "[PAD]",
      "single_word": false,
      "lstrip": false,
      "rstrip": false,
      "normalized": false,
      "special": true
    },
    {
      "id": 10,
      "content": "[UNK]",
      "single_word": false,
      "lstrip": false,
      "rstrip": false,
      "normalized": false,
      "special": true
    },
    {
      "id": 11,
      "content": "[CLS]",
      "single_word": false,
      "lstrip": false,
      "rstrip": false,
      "normalized": false,
      "special": true
    },
    {
      "id": 12,
      "content": "[SEP]",
      "single_word": false,
      "lstrip": false,
      "rstrip": false,
      "normalized": false,
      "special": true
    },
    {
      "id": 13,
      "content": "[MASK]",
      "single_word": false,
      "lstrip": false,
      "rstrip": false,
      "normalized": false,
      "special": true
    }
  ],
  "normalizer": {
    "type": "BertNormalizer",
    "clean_text": true,
    "handle_chinese_chars": true,
    "strip_accents": null,
    "lowercase": false
  },
  "pre_tokenizer": {
    "type": "BertPreTokenizer"
  },
  "post_processor": {
    "type": "TemplateProcessing",
    "single": [
      {
        "SpecialToken": {
          "id": "[CLS]",
          "type_id": 0
        }
      },
      {
        "Sequence": {
          "id": "A",
          "type_id": 0
        }
      },
      {
        "SpecialToken": {
          "id": "[SEP]",
          "type_id": 0
        }
      }
    ],
    "pair": [
      {
        "SpecialToken": {
          "id": "[CLS]",
          "type_id": 0
        }
      },
      {
        "Sequence": {
          "id": "A",
          "type_id": 0
        }
      },
      {
        "SpecialToken": {
          "id": "[SEP]",
          "type_id": 0
        }
      },
      {
        "Sequence": {
          "id": "B",
          "type_id": 1
        }
      },
      {
        "SpecialToken": {
          "id": "[SEP]",
          "type_id": 1
        }
      }
    ],
    "special_tokens": {
      "[CLS]": {
        "id": "[CLS]",
        "ids": [
          11
        ],
        "tokens": [
          "[CLS]"
        ]
      },
      "[SEP]": {
        "id": "[SEP]",
        "ids": [
          12
        ],
        "tokens": [
          "[SEP]"
        ]
      }
    }
  },
  "decoder": {
    "type": "WordPiece",
    "prefix": "##",
    "cleanup": true
  },
  "model": {
    "type": "WordPiece",
    "unk_token": "[UNK]",
    "continuing_subword_prefix": "##",
    "max_input_chars_per_word": 100,
    "vocab": {
      "[PAD]": 0,
      "[unused1]": 1,
      "[unused2]": 2,
      "[unused3]": 3,
      "[unused4]": 4,
      "[unused5]": 5,
      "[unused6]": 6,
      "[unused7]": 7,
      "[unused8]": 8,
      "[unused9]": 9,
      "[UNK]": 10,
      "[CLS]": 11,
      "[SEP]": 12,
      "[MASK]": 13,
      "!": 14,
      "\"": 15,
      "#": 16,
      "$": 17,
      "%": 18,
      "&": 19,
      "'": 20,
      "(": 21,
      ")": 22,
      "*": 23,
      "+": 24,
      ",": 25,
      "-": 26,
      ".": 27,
      "/": 28,
      "0": 29,
      "1": 30,
      "2": 31,
      "3": 32,
      "4": 33,
      "5": 34,
      "6": 35,
      "7": 36,
      "8": 37,
      "9": 38,
      ":": 39,
      ";": 40,
      "<": 41,
      "=": 42,
      ">": 43,
      "?": 44,
      "@": 45,
      "A": 46,
      "B": 47,
      "C": 48,
      "D": 49,
      "E": 50,
      "F": 51,
      "G": 52,
      "H": 53,
      "I": 54,
      "J": 55,
      "K": 56,
      "L": 57,
      "M": 58,
      "N": 59,
      "O": 60,
      "P": 61,
      "Q": 62,
      "R": 63,
      "S": 64,
      "T": 65,
      "U": 66,
      "V": 67,
      "W": 68,
      "X": 69,
      "Y": 70,
      "Z": 71,
      "[": 72,
      "\\": 73,
      "]": 74,
      "^": 75,
      "_": 76,
      "a": 77,
      "b": 78,
      "c": 79,
      "d": 80,
      "e": 81,
      "f": 82,
      "g": 83,
      "h": 84,
      "i": 85,
      "j": 86,
      "k": 87,
      "l": 88,
      "m": 89,
      "n": 90,
      "o": 91,
      "p": 92,
      "q": 93,
      "r": 94,
      "s": 95,
      "t": 96,
      "u": 97,
      "v": 98,
      "w": 99,
      "x": 100,
      "y": 101,
      "z": 102,
      "{": 103,
      "|": 104,
      "}": 105,
      "~": 106,
      "¡": 107,
      "£": 108,
      "¥": 109,
      "§": 110,
      "«": 111,
      "°": 112,
      "±": 113,
      "²": 114,
      "·": 115,
      "»": 116,
      "½": 117,
      "À": 118,
      "Á": 119,
      "Â": 120,
      "Ä": 121,
      "Å": 122,
      "Æ": 123,
      "Ç": 124,
      "È": 125,
      "É": 126,
      "Ê": 127,
      "Í": 128,
      "Ó": 129,
      "Ô": 130,
      "Ö": 131,
      "×": 132,
      "Ø": 133,
      "Ú": 134,
      "Ü": 135,
      "Þ": 136,
      "à": 137,
      "â": 138,
      "æ": 139,
      "ç": 140,
      "è": 141,
      "é": 142,
      "ê": 143,
      "í": 144,
      "ô": 145,
      "Ā": 146,
      "ā": 147,
      "Ć": 148,
      "Č": 149,
      "Đ": 150,
      "ī": 151,
      "İ": 152,
      "Ł": 153,
      "Ō": 154,
      "Œ": 155,
      "œ": 156,
      "Ś": 157,
      "Ş": 158,
      "Š": 159,
      "Ż": 160,
      "Ž": 161,
      "Ș": 162,
      "ʿ": 163,
      "ˈ": 164,
      "ː": 165,
      "Δ": 166,
      "Κ": 167,
      "Π": 168,
      "Σ": 169,
      "α": 170,
      "β": 171,
      "γ": 172,
      "δ": 173,
      "ε": 174,
      "θ": 175,
      "κ": 176,
      "λ": 177,
      "μ": 178,
      "π": 179,
      "σ": 180,
      "τ": 181,
      "φ": 182,
      "ω": 183,
      "В": 184,
      "Г": 185,
      "К": 186,
      "М": 187,
      "Р": 188,
      "С": 189,
      "Ḥ": 190,
      "Ḩ": 191,
      "„": 192,
      "†": 193,
      "•": 194,
      "‰": 195,
      "′": 196,
      "″": 197,
      "€": 198,
      "№": 199,
      "ℝ": 200,
      "→": 201,
      "∈": 202,
      "−": 203,
      "≤": 204,
      "≥": 205,
      "一": 206,
      "三": 207,
      "中": 208,
      "人": 209,
      "公": 210,
      "区": 211,
      "南": 212,
      "县": 213,
      "大": 214,
      "天": 215,
      "子": 216,
      "山": 217,
      "州": 218,
      "平": 219,
      "文": 220,
      "書": 221,
      "李": 222,
      "武": 223,
      "王": 224,
      "道": 225,
      "金": 226,
      "de": 227,
      "the": 228,
      "in": 229,
      "##s": 230,
      "of": 231,
      "la": 232,
      "en": 233,
      "and": 234,
      "##e": 235,
      "##a": 236,
      "to": 237,
      "##n": 238,
      "##i": 239,
      "The": 240,
      "der": 241,
      "un": 242,
      "di": 243,
      "que": 244,
      "##t": 245,
      "is": 246,
      "el": 247,
      "se": 248,
      "del": 249,
      "die": 250,
      "##r": 251,
      "und": 252,
      "et": 253,
      "na": 254,
      "##o": 255,
      "was": 256,
      "on": 257,
      "##en": 258,
      "##u": 259,
      "des": 260,
      "den": 261,
      "le": 262,
      "for": 263,
      "da": 264,
      "je": 265,
      "van": 266,
      "as": 267,
      "##m": 268,
      "sa": 269,
      "do": 270,
      "10": 271,
      "an": 272,
      "les": 273,
      "una": 274,
      "il": 275,
      "by": 276,
      "og": 277,
      "##y": 278,
      "2011": 279,
      "La": 280,
      "at": 281,
      "##l": 282,
      "##d": 283,
      "er": 284,
      "al": 285,
      "##er": 286,
      "von": 287,
      "In": 288,
      "du": 289,
      "with": 290,
      "av": 291,
      "##es": 292,
      "med": 293,
      "con": 294,
      "##k": 295,
      "2010": 296,
      "est": 297,
      "och": 298,
      "per": 299,
      "2000": 300,
      "som": 301,
      "los": 302,
      "por": 303,
      "2012": 304,
      "12": 305,
      "het": 306,
      "from": 307,
      "that": 308,
      "De": 309,
      "no": 310,
      "11": 311,
      "2014": 312,
      "2009": 313,
      "es": 314,
      "20": 315,
      "su": 316,
      "ja": 317,
      "2007": 318,
      "2008": 319,
      "km": 320,
      "##an": 321,
      "2013": 322,
      "15": 323,
      "om": 324,
      "im": 325,
      "com": 326,
      "##ta": 327,
      "2006": 328,
      "dan": 329,
      "##te": 330,
      "18": 331,
      "##na": 332,
      "para": 333,
      "mit": 334,
      "2015": 335,
      "als": 336,
      "El": 337,
      "como": 338,
      "his": 339,
      "ha": 340,
      "##da": 341,
      "##ing": 342,
      "une": 343,
      "24": 344,
      "Den": 345,
      "Die": 346,
      "##h": 347,
      "##ne": 348,
      "##g": 349,
      "das": 350,
      "En": 351,
      "30": 352,
      "##in": 353,
      "##re": 354,
      "14": 355,
      "par": 356,
      "13": 357,
      "16": 358,
      "##us": 359,
      "2005": 360,
      "##de": 361,
      "2016": 362,
      "és": 363,
      "au": 364,
      "25": 365,
      "000": 366,
      "dans": 367,
      "he": 368,
      "che": 369,
      "##on": 370,
      "2004": 371,
      "em": 372,
      "dem": 373,
      "##ch": 374,
      "19": 375,
      "it": 376,
      "2001": 377,
      "17": 378,
      "°C": 379,
      "til": 380,
      "2002": 381,
      "han": 382,
      "##ia": 383,
      "Le": 384,
      "Il": 385,
      "##le": 386,
      "las": 387,
      "della": 388,
      "New": 389,
      "##ra": 390,
      "ein": 391,
      "##is": 392,
      "um": 393,
      "si": 394,
      "2003": 395,
      "21": 396,
      "ist": 397,
      "var": 398,
      "Species": 399,
      "are": 400,
      "2017": 401,
      "op": 402,
      "zu": 403,
      "##z": 404,
      "22": 405,
      "für": 406,
      "##et": 407,
      "were": 408,
      "##os": 409,
      "od": 410,
      "son": 411,
      "An": 412,
      "26": 413,
      "World": 414,
      "##do": 415,
      "which": 416,
      "##ja": 417,
      "va": 418,
      "pour": 419,
      "ve": 420,
      "1999": 421,
      "##ti": 422,
      "sur": 423,
      "23": 424,
      "auf": 425,
      "##la": 426,
      "là": 427,
      "##é": 428,
      "II": 429,
      "##ed": 430,
      "Life": 431,
      "war": 432,
      "za": 433,
      "##to": 434,
      "##se": 435,
      "##ni": 436,
      "##no": 437,
      "or": 438,
      "be": 439,
      "28": 440,
      "det": 441,
      "##c": 442,
      "##ar": 443,
      "qui": 444,
      "He": 445,
      "az": 446,
      "te": 447,
      "##va": 448,
      "1998": 449,
      "27": 450,
      "mm": 451,
      "##nt": 452,
      "##ma": 453,
      "##ka": 454,
      "Catalogue": 455,
      "had": 456,
      "##ng": 457,
      "It": 458,
      "also": 459,
      "so": 460,
      "##je": 461,
      "29": 462,
      "1996": 463,
      "##li": 464,
      "1997": 465,
      "am": 466,
      "has": 467,
      "km²": 468,
      "dos": 469,
      "ur": 470,
      "##ie": 471,
      "##ri": 472,
      "entre": 473,
      "##as": 474,
      "University": 475,
      "lo": 476,
      "100": 477,
      "eta": 478,
      "##p": 479,
      "era": 480,
      "31": 481,
      "ni": 482,
      "##al": 483,
      "##j": 484,
      "##ce": 485,
      "1990": 486,
      "John": 487,
      "first": 488,
      "##ca": 489,
      "##ment": 490,
      "os": 491,
      "met": 492,
      "ou": 493,
      "2018": 494,
      "all": 495,
      "1995": 496,
      "##ko": 497,
      "aus": 498,
      "1991": 499,
      "##ó": 500,
      "1994": 501,
      "Der": 502,
      "non": 503,
      "foi": 504,
      "##si": 505,
      "1992": 506,
      "##em": 507,
      "af": 508,
      "har": 509,
      "##ly": 510,
      "their": 511,
      "ar": 512,
      "##b": 513,
      "film": 514,
      "avec": 515,
      "50": 516,
      "1993": 517,
      "one": 518,
      "##um": 519,
      "##sa": 520,
      "bis": 521,
      "Les": 522,
      "San": 523,
      "##ă": 524,
      "not": 525,
      "but": 526,
      "its": 527,
      "##v": 528,
      "ir": 529,
      "who": 530,
      "ny": 531,
      "York": 532,
      "##ga": 533,
      "##ς": 534,
      "her": 535,
      "##it": 536,
      "ang": 537,
      "Mexico": 538,
      "over": 539,
      "bei": 540,
      "ser": 541,
      "www": 542,
      "dei": 543,
      "##mi": 544,
      "##ki": 545,
      "alla": 546,
      "po": 547,
      "History": 548,
      "door": 549,
      "UK": 550,
      "1989": 551,
      "##ge": 552,
      "##at": 553,
      "dat": 554,
      "runt": 555,
      "have": 556,
      "this": 557,
      "40": 558,
      "American": 559,
      "##ba": 560,
      "1980": 561,
      "ed": 562,
      "species": 563,
      "##í": 564,
      "##ur": 565,
      "este": 566,
      "1988": 567,
      "ya": 568,
      "##ke": 569,
      "two": 570,
      "parte": 571,
      "ne": 572,
      "http": 573,
      "Ang": 574,
      "amb": 575,
      "bir": 576,
      "##st": 577,
      "plus": 578,
      "ITIS": 579,
      "##ro": 580,
      "Press": 581,
      "##el": 582,
      "under": 583,
      "##f": 584,
      "On": 585,
      "1986": 586,
      "1987": 587,
      "1985": 588,
      "978": 589,
      "meter": 590,
      "men": 591,
      "##man": 592,
      "been": 593,
      "dell": 594,
      "ini": 595,
      "familia": 596,
      "din": 597,
      "September": 598,
      "1984": 599,
      "##ci": 600,
      "Saint": 601,
      "sua": 602,
      "##ul": 603,
      "##ndo": 604,
      "album": 605,
      "1970": 606,
      "qu": 607,
      "United": 608,
      "ao": 609,
      "##mente": 610,
      "##ve": 611,
      "mais": 612,
      "Annual": 613,
      "seu": 614,
      "genus": 615,
      "##ą": 616,
      "Kirk": 617,
      "oli": 618,
      "##me": 619,
      "fra": 620,
      "Reading": 621,
      "Los": 622,
      "Michael": 623,
      "sie": 624,
      "##den": 625,
      "time": 626,
      "##za": 627,
      "##io": 628,
      "Bourgoin": 629,
      "NASA": 630,
      "1982": 631,
      "1983": 632,
      "##ów": 633,
      "Bailly": 634,
      "sont": 635,
      "III": 636,
      "1981": 637,
      "National": 638,
      "No": 639,
      "##á": 640,
      "after": 641,
      "1975": 642,
      "Det": 643,
      "##or": 644,
      "part": 645,
      "01": 646,
      "1945": 647,
      "dia": 648,
      "Das": 649,
      "1979": 650,
      "##nya": 651,
      "1972": 652,
      "come": 653,
      "##ya": 654,
      "red": 655,
      "##ten": 656,
      "other": 657,
      "Na": 658,
      "##x": 659,
      "France": 660,
      "they": 661,
      "sobre": 662,
      "##om": 663,
      "1978": 664,
      "William": 665,
      "tot": 666,
      "1968": 667,
      "1960": 668,
      "##di": 669,
      "1976": 670,
      "##kan": 671,
      "##ek": 672,
      "into": 673,
      "60": 674,
      "##ak": 675,
      "till": 676,
      "##ı": 677,
      "##lo": 678,
      "##ung": 679,
      "ble": 680,
      "06": 681,
      "1977": 682,
      "1974": 683,
      "1973": 684,
      "May": 685,
      "Paris": 686,
      "##2": 687,
      "ka": 688,
      "##S": 689,
      "1971": 690,
      "org": 691,
      "Mer": 692,
      "August": 693,
      "zur": 694,
      "mai": 695,
      "##A": 696,
      "dal": 697,
      "up": 698,
      "ng": 699,
      "This": 700,
      "new": 701,
      "aux": 702,
      "##ny": 703,
      "500": 704,
      "##ho": 705,
      "##1": 706,
      "##ju": 707,
      "sind": 708,
      "1969": 709,
      "Jean": 710,
      "International": 711,
      "Paul": 712,
      "City": 713,
      "##lar": 714,
      "##ji": 715,
      "200": 716,
      "April": 717,
      "att": 718,
      "ce": 719,
      "sin": 720,
      "Im": 721,
      "##go": 722,
      "more": 723,
      "nan": 724,
      "1967": 725,
      "pas": 726,
      "35": 727,
      "David": 728,
      "ei": 729,
      "##ts": 730,
      "US": 731,
      "##ción": 732,
      "1950": 733,
      "##co": 734,
      "TV": 735,
      "04": 736,
      "##ler": 737,
      "##à": 738,
      "man": 739,
      "Han": 740,
      "November": 741,
      "Robert": 742,
      "##tion": 743,
      "ma": 744,
      "1944": 745,
      "45": 746,
      "1962": 747,
      "London": 748,
      "lui": 749,
      "05": 750,
      "80": 751,
      "she": 752,
      "##ir": 753,
      "##ía": 754,
      "delle": 755,
      "St": 756,
      "1965": 757,
      "ad": 758,
      "when": 759,
      "32": 760,
      "65": 761,
      "été": 762,
      "sus": 763,
      "subspecies": 764,
      "due": 765,
      "##ku": 766,
      "cu": 767,
      "years": 768,
      "1964": 769,
      "1966": 770,
      "##C": 771,
      "States": 772,
      "fan": 773,
      "NGC": 774,
      "Het": 775,
      "##ze": 776,
      "later": 777,
      "##w": 778,
      "1961": 779,
      "##ter": 780,
      "07": 781,
      "ki": 782,
      "1941": 783,
      "As": 784,
      "Al": 785,
      "##3": 786,
      "##ë": 787,
      "County": 788,
      "1940": 789,
      "##ns": 790,
      "only": 791,
      "would": 792,
      "1939": 793,
      "##ik": 794,
      "James": 795,
      "##ers": 796,
      "1963": 797,
      "kan": 798,
      "03": 799,
      "##ry": 800,
      "me": 801,
      "Es": 802,
      "Er": 803,
      "##sen": 804,
      "90": 805,
      "##des": 806,
      "##ha": 807,
      "##ção": 808,
      "70": 809,
      "year": 810,
      "Charles": 811,
      "##ban": 812,
      "##0": 813,
      "pa": 814,
      "during": 815,
      "where": 816,
      "ze": 817,
      "##rs": 818,
      "can": 819,
      "1958": 820,
      "between": 821,
      "out": 822,
      "wie": 823,
      "George": 824,
      "him": 825,
      "Inga": 826,
      "sono": 827,
      "millimeter": 828,
      "##ę": 829,
      "noten": 830,
      "##ben": 831,
      "juli": 832,
      "alle": 833,
      "##ren": 834,
      "##sta": 835,
      "jest": 836,
      "ses": 837,
      "1956": 838,
      "##rt": 839,
      "about": 840,
      "Peter": 841,
      "1959": 842,
      "02": 843,
      "School": 844,
      "comme": 845,
      "1943": 846,
      "##tu": 847,
      "most": 848,
      "33": 849,
      "three": 850,
      "1948": 851,
      "fu": 852,
      "##am": 853,
      "##ou": 854,
      "##4": 855,
      "Earth": 856,
      "##ä": 857,
      "ben": 858,
      "1942": 859,
      "made": 860,
      "##ria": 861,
      "ye": 862,
      "##ov": 863,
      "00": 864,
      "1957": 865,
      "1930": 866,
      "1920": 867,
      "##il": 868,
      "used": 869,
      "1954": 870,
      "##mo": 871,
      "09": 872,
      "vom": 873,
      "##wa": 874,
      "Un": 875,
      "##jo": 876,
      "forma": 877,
      "##és": 878,
      "##ica": 879,
      "##be": 880,
      "Se": 881,
      "##ion": 882,
      "such": 883,
      "deux": 884,
      "08": 885,
      "known": 886,
      "36": 887,
      "South": 888,
      "ta": 889,
      "nie": 890,
      "then": 891,
      "USA": 892,
      "##ken": 893,
      "1946": 894,
      "You": 895,
      "Maria": 896,
      "##ina": 897,
      "34": 898,
      "final": 899,
      "1955": 900,
      "League": 901,
      "population": 902,
      "##land": 903,
      "1938": 904,
      "##lla": 905,
      "than": 906,
      "nu": 907,
      "1953": 908,
      "##ine": 909,
      "##T": 910,
      "300": 911,
      "IV": 912,
      "1949": 913,
      "Thomas": 914,
      "1918": 915,
      "India": 916,
      "1952": 917,
      "All": 918,
      "State": 919,
      "##un": 920,
      "Oxford": 921,
      "familie": 922,
      "club": 923,
      "July": 924,
      "1947": 925,
      "##zione": 926,
      "més": 927,
      "elle": 928,
      "Richard": 929,
      "##che": 930,
      "June": 931,
      "team": 932,
      "Az": 933,
      "1936": 934,
      "44": 935,
      "##P": 936,
      "##ner": 937,
      "##ic": 938,
      "care": 939,
      "second": 940,
      "##ł": 941,
      "zen": 942,
      "ca": 943,
      "Nel": 944,
      "Retrieved": 945,
      "##ok": 946,
      "##ig": 947,
      "##th": 948,
      "March": 949,
      "##nu": 950,
      "She": 951,
      "some": 952,
      "##ada": 953,
      "Santa": 954,
      "there": 955,
      "##ste": 956,
      "##ut": 957,
      "British": 958,
      "pe": 959,
      "Film": 960,
      "ke": 961,
      "West": 962,
      "data": 963,
      "##5": 964,
      "gli": 965,
      "area": 966,
      "##án": 967,
      "co": 968,
      "38": 969,
      "1937": 970,
      "born": 971,
      "400": 972,
      "any": 973,
      "became": 974,
      "##dos": 975,
      "##ton": 976,
      "##que": 977,
      "vor": 978,
      "place": 979,
      "Berlin": 980,
      "##ty": 981,
      "##tes": 982,
      "including": 983,
      "1951": 984,
      "pod": 985,
      "##ble": 986,
      "37": 987,
      "##das": 988,
      "well": 989,
      "cm": 990,
      "##gi": 991,
      "##6": 992,
      "October": 993,
      "##nen": 994,
      "General": 995,
      "through": 996,
      "being": 997,
      "##ní": 998,
      "North": 999,
      "season": 1000,
      "##nte": 1001,
      "##ll": 1002,
      "doi": 1003,
      "##ea": 1004,
      "##res": 1005,
      "Martin": 1006,
      "##ant": 1007,
      "January": 1008,
      "Park": 1009,
      "##ò": 1010,
      "##vo": 1011,
      "##ée": 1012,
      "##né": 1013,
      "1933": 1014,
      "Love": 1015,
      "##id": 1016,
      "hat": 1017,
      "ko": 1018,
      "##ssa": 1019,
      "database": 1020,
      "Po": 1021,
      "Society": 1022,
      "cho": 1023,
      "##E": 1024,
      "##ck": 1025,
      "tra": 1026,
      "fost": 1027,
      "pero": 1028,
      "##les": 1029,
      "##ning": 1030,
      "##lle": 1031,
      "1935": 1032,
      "##ado": 1033,
      "##R": 1034,
      "##B": 1035,
      "##ske": 1036,
      "42": 1037,
      "War": 1038,
      "##gen": 1039,
      "##I": 1040,
      "##zi": 1041,
      "1934": 1042,
      "pro": 1043,
      "1919": 1044,
      "December": 1045,
      "Em": 1046,
      "##ot": 1047,
      "##ist": 1048,
      "64": 1049,
      "bij": 1050,
      "##nie": 1051,
      "##ista": 1052,
      "many": 1053,
      "48": 1054,
      "After": 1055,
      "39": 1056,
      "##der": 1057,
      "##7": 1058,
      "1914": 1059,
      "nord": 1060,
      "pp": 1061,
      "##vi": 1062,
      "Database": 1063,
      "Europa": 1064,
      "Club": 1065,
      "Music": 1066,
      "radie": 1067,
      "Grand": 1068,
      "ci": 1069,
      "name": 1070,
      "Museum": 1071,
      "against": 1072,
      "prima": 1073,
      "fait": 1074,
      "volt": 1075,
      "1932": 1076,
      "Louis": 1077,
      "##nia": 1078,
      "1929": 1079,
      "will": 1080,
      "total": 1081,
      "One": 1082,
      "bi": 1083,
      "Man": 1084,
      "1928": 1085,
      "them": 1086,
      "ai": 1087,
      "##berg": 1088,
      "41": 1089,
      "dalla": 1090,
      "nur": 1091,
      "##pe": 1092,
      "world": 1093,
      "ab": 1094,
      "55": 1095,
      "##pa": 1096,
      "before": 1097,
      "amin": 1098,
      "original": 1099,
      "family": 1100,
      "series": 1101,
      "won": 1102,
      "1917": 1103,
      "##L": 1104,
      "43": 1105,
      "while": 1106,
      "ale": 1107,
      "##9": 1108,
      "José": 1109,
      "single": 1110,
      "ont": 1111,
      "Joseph": 1112,
      "commune": 1113,
      "uno": 1114,
      "##nde": 1115,
      "1931": 1116,
      "cui": 1117,
      "may": 1118,
      "state": 1119,
      "general": 1120,
      "##tas": 1121,
      "Records": 1122,
      "school": 1123,
      "sous": 1124,
      "solo": 1125,
      "##8": 1126,
      "Art": 1127,
      "For": 1128,
      "##ski": 1129,
      "juni": 1130,
      "##O": 1131,
      "base": 1132,
      "##ent": 1133,
      "via": 1134,
      "nom": 1135,
      "both": 1136,
      "47": 1137,
      "1924": 1138,
      "75": 1139,
      "##men": 1140,
      "ex": 1141,
      "work": 1142,
      "people": 1143,
      "Encyclopedia": 1144,
      "gran": 1145,
      "##lu": 1146,
      "local": 1147,
      "mars": 1148,
      "grande": 1149,
      "America": 1150,
      "Lake": 1151,
      "1927": 1152,
      "until": 1153,
      "##ky": 1154,
      "##ger": 1155,
      "##G": 1156,
      "##ão": 1157,
      "##ý": 1158,
      "College": 1159,
      "Union": 1160,
      "Ny": 1161,
      "##du": 1162,
      "1922": 1163,
      "##cia": 1164,
      "1925": 1165,
      "cette": 1166,
      "##ura": 1167,
      "1921": 1168,
      "To": 1169,
      "wa": 1170,
      "1926": 1171,
      "contra": 1172,
      "Van": 1173,
      "##ii": 1174,
      "##sk": 1175,
      "sein": 1176,
      "##ol": 1177,
      "##ón": 1178,
      "##ā": 1179,
      "##ć": 1180,
      "##ska": 1181,
      "history": 1182,
      "number": 1183,
      "##ad": 1184,
      "##D": 1185,
      "nombre": 1186,
      "##nes": 1187,
      "##mento": 1188,
      "bu": 1189,
      "Am": 1190,
      "primer": 1191,
      "esta": 1192,
      "Nach": 1193,
      "1912": 1194,
      "February": 1195,
      "System": 1196,
      "Award": 1197,
      "King": 1198,
      "anni": 1199,
      "##M": 1200,
      "Las": 1201,
      "bat": 1202,
      "hi": 1203,
      "1923": 1204,
      "partir": 1205,
      "51": 1206,
      "52": 1207,
      "Nacional": 1208,
      "##tt": 1209,
      "46": 1210,
      "FC": 1211,
      "##by": 1212,
      "sem": 1213,
      "##lt": 1214,
      "##nd": 1215,
      "##N": 1216,
      "ay": 1217,
      "released": 1218,
      "##ien": 1219,
      "##ai": 1220,
      "Elle": 1221,
      "Cup": 1222,
      "House": 1223,
      "sig": 1224,
      "called": 1225,
      "played": 1226,
      "Italia": 1227,
      "nem": 1228,
      "same": 1229,
      "##ə": 1230,
      "##F": 1231,
      "aber": 1232,
      "1900": 1233,
      "band": 1234,
      "end": 1235,
      "nos": 1236,
      "River": 1237,
      "49": 1238,
      "asteroid": 1239,
      "Sie": 1240,
      "city": 1241,
      "1910": 1242,
      "Washington": 1243,
      "##ach": 1244,
      "Me": 1245,
      "My": 1246,
      "##are": 1247,
      "China": 1248,
      "même": 1249,
      "Tour": 1250,
      "Royal": 1251,
      "His": 1252,
      "four": 1253,
      "##son": 1254,
      "ing": 1255,
      "Henry": 1256,
      "ile": 1257,
      "##ert": 1258,
      "1913": 1259,
      "village": 1260,
      "##len": 1261,
      "Pierre": 1262,
      "based": 1263,
      "Dr": 1264,
      "li": 1265,
      "English": 1266,
      "tre": 1267,
      "vid": 1268,
      "Italy": 1269,
      "##ron": 1270,
      "California": 1271,
      "##ita": 1272,
      "##ies": 1273,
      "##ire": 1274,
      "56": 1275,
      "##ian": 1276,
      "##ana": 1277,
      "nome": 1278,
      "Canada": 1279,
      "##ě": 1280,
      "##ú": 1281,
      "re": 1282,
      "##cht": 1283,
      "Red": 1284,
      "##he": 1285,
      "était": 1286,
      "##bi": 1287,
      "CD": 1288,
      "IC": 1289,
      "principal": 1290,
      "54": 1291,
      "Routledge": 1292,
      "Indonesia": 1293,
      "kilometer": 1294,
      "sud": 1295,
      "game": 1296,
      "degli": 1297,
      "##lich": 1298,
      "Italian": 1299,
      "##so": 1300,
      "anno": 1301,
      "##ische": 1302,
      "Smith": 1303,
      "version": 1304,
      "##ks": 1305,
      "après": 1306,
      "ug": 1307,
      "##ud": 1308,
      "##ru": 1309,
      "tres": 1310,
      "1915": 1311,
      "public": 1312,
      "être": 1313,
      "Juan": 1314,
      "dit": 1315,
      "long": 1316,
      "They": 1317,
      "Cambridge": 1318,
      "At": 1319,
      "England": 1320,
      "##q": 1321,
      "Air": 1322,
      "##au": 1323,
      "##ier": 1324,
      "##cy": 1325,
      "nun": 1326,
      "##mu": 1327,
      "Center": 1328,
      "BBC": 1329,
      "There": 1330,
      "##ida": 1331,
      "Madrid": 1332,
      "Australia": 1333,
      "Best": 1334,
      "sau": 1335,
      "early": 1336,
      "##K": 1337,
      "ut": 1338,
      "several": 1339,
      "1911": 1340,
      "Company": 1341,
      "Don": 1342,
      "Si": 1343,
      "ville": 1344,
      "ans": 1345,
      "##ls": 1346,
      "Black": 1347,
      "Association": 1348,
      "53": 1349,
      "Christian": 1350,
      "dont": 1351,
      "##im": 1352,
      "use": 1353,
      "84": 1354,
      "these": 1355,
      "Hall": 1356,
      "since": 1357,
      "150": 1358,
      "Europe": 1359,
      "Hans": 1360,
      "ten": 1361,
      "Festival": 1362,
      "land": 1363,
      "former": 1364,
      "##ini": 1365,
      "##V": 1366,
      "UTC": 1367,
      "##han": 1368,
      "cada": 1369,
      "go": 1370,
      "Mai": 1371,
      "1916": 1372,
      "system": 1373,
      "##bo": 1374,
      "Do": 1375,
      "Daniel": 1376,
      "pela": 1377,
      "Roma": 1378,
      "group": 1379,
      "600": 1380,
      "Francisco": 1381,
      "##nin": 1382,
      "wat": 1383,
      "Jan": 1384,
      "leur": 1385,
      "##ation": 1386,
      "1905": 1387,
      "##tor": 1388,
      "où": 1389,
      "home": 1390,
      "57": 1391,
      "Da": 1392,
      "1908": 1393,
      "##dae": 1394,
      "found": 1395,
      "58": 1396,
      "station": 1397,
      "fin": 1398,
      "##ius": 1399,
      "Census": 1400,
      "East": 1401,
      "Marie": 1402,
      "Star": 1403,
      "augusti": 1404,
      "music": 1405,
      "post": 1406,
      "national": 1407,
      "high": 1408,
      "set": 1409,
      "Island": 1410,
      "##dor": 1411,
      "like": 1412,
      "1907": 1413,
      "##ux": 1414,
      "mas": 1415,
      "##vat": 1416,
      "now": 1417,
      "ra": 1418,
      "##nda": 1419,
      "Karl": 1420,
      "##lik": 1421,
      "##idae": 1422,
      "59": 1423,
      "fut": 1424,
      "Frank": 1425,
      "Antonio": 1426,
      "##iu": 1427,
      "Stadt": 1428,
      "##ker": 1429,
      "Central": 1430,
      "##ė": 1431,
      "ga": 1432,
      "nei": 1433,
      "##ang": 1434,
      "Japan": 1435,
      "French": 1436,
      "kg": 1437,
      "XIX": 1438,
      "show": 1439,
      "off": 1440,
      "800": 1441,
      "following": 1442,
      "pelo": 1443,
      "##ige": 1444,
      "##ua": 1445,
      "##chen": 1446,
      "##ico": 1447,
      "##ted": 1448,
      "premier": 1449,
      "European": 1450,
      "ban": 1451,
      "Bu": 1452,
      "##ice": 1453,
      "Open": 1454,
      "site": 1455,
      "major": 1456,
      "Observations": 1457,
      "##hi": 1458,
      "vida": 1459,
      "Band": 1460,
      "Journal": 1461,
      "1906": 1462,
      "Od": 1463,
      "art": 1464,
      "1904": 1465,
      "day": 1466,
      "began": 1467,
      "##ive": 1468,
      "century": 1469,
      "1909": 1470,
      "##ling": 1471,
      "each": 1472,
      "##ity": 1473,
      "##ej": 1474,
      "we": 1475,
      "##ata": 1476,
      "located": 1477,
      "High": 1478,
      "##dir": 1479,
      "District": 1480,
      "ili": 1481,
      "Street": 1482,
      "##sti": 1483,
      "Als": 1484,
      "##át": 1485,
      "##gan": 1486,
      "##ven": 1487,
      "Zeit": 1488,
      "95": 1489,
      "novembre": 1490,
      "Per": 1491,
      "Edward": 1492,
      "##zen": 1493,
      "Division": 1494,
      "net": 1495,
      "service": 1496,
      "##ui": 1497,
      "held": 1498,
      "autres": 1499,
      "Population": 1500,
      "Mark": 1501,
      "##ei": 1502,
      "Time": 1503,
      "Land": 1504,
      "aussi": 1505,
      "Nord": 1506,
      "Lee": 1507,
      "##°": 1508,
      "member": 1509,
      "song": 1510,
      "##rio": 1511,
      "back": 1512,
      "##era": 1513,
      "85": 1514,
      "Times": 1515,
      "hans": 1516,
      "##U": 1517,
      "##rd": 1518,
      "German": 1519,
      "##nik": 1520,
      "bien": 1521,
      "Institute": 1522,
      "Is": 1523,
      "sul": 1524,
      "named": 1525,
      "hun": 1526,
      "seg": 1527,
      "##ville": 1528,
      "##sch": 1529,
      "government": 1530,
      "120": 1531,
      "Carlos": 1532,
      "Group": 1533,
      "##lan": 1534,
      "depuis": 1535,
      "unha": 1536,
      "onde": 1537,
      "##tan": 1538,
      "nad": 1539,
      "##ene": 1540,
      "alors": 1541,
      "Alexander": 1542,
      "Live": 1543,
      "62": 1544,
      "XX": 1545,
      "88": 1546,
      "Hij": 1547,
      "large": 1548,
      "video": 1549,
      "Modern": 1550,
      "mot": 1551,
      "Radio": 1552,
      "Os": 1553,
      "casa": 1554,
      "age": 1555,
      "##lor": 1556,
      "également": 1557,
      "##zo": 1558,
      "##cie": 1559,
      "company": 1560,
      "##ure": 1561,
      "life": 1562,
      "##ley": 1563,
      "district": 1564,
      "Rio": 1565,
      "##ran": 1566,
      "Barcelona": 1567,
      "São": 1568,
      "production": 1569,
      "line": 1570,
      "72": 1571,
      "meg": 1572,
      "##ere": 1573,
      "##ris": 1574,
      "main": 1575,
      "fr": 1576,
      "First": 1577,
      "##kin": 1578,
      "##tte": 1579,
      "mi": 1580,
      "ali": 1581,
      "Index": 1582,
      "White": 1583,
      "ainsi": 1584,
      "Team": 1585,
      "##ting": 1586,
      "social": 1587,
      "Information": 1588,
      "##dan": 1589,
      "Science": 1590,
      "Una": 1591,
      "took": 1592,
      "##nce": 1593,
      "left": 1594,
      "siècle": 1595,
      "##ně": 1596,
      "Rock": 1597,
      "Data": 1598,
      "Op": 1599,
      "ordo": 1600,
      "série": 1601,
      "around": 1602,
      "did": 1603,
      "could": 1604,
      "1903": 1605,
      "Mary": 1606,
      "##bu": 1607,
      "première": 1608,
      "82": 1609,
      "built": 1610,
      "capital": 1611,
      "1000": 1612,
      "99": 1613,
      "form": 1614,
      "habitants": 1615,
      "##tta": 1616,
      "Friedrich": 1617,
      "##té": 1618,
      "However": 1619,
      "Ein": 1620,
      "fa": 1621,
      "##ber": 1622,
      "250": 1623,
      "66": 1624,
      "##ın": 1625,
      "News": 1626,
      "region": 1627,
      "town": 1628,
      "From": 1629,
      "##ale": 1630,
      "86": 1631,
      "Carl": 1632,
      "lan": 1633,
      "pre": 1634,
      "zona": 1635,
      "Angeles": 1636,
      "##val": 1637,
      "Simon": 1638,
      "tempo": 1639,
      "finale": 1640,
      "kom": 1641,
      "famili": 1642,
      "When": 1643,
      "INSEE": 1644,
      "##ère": 1645,
      "##zioni": 1646,
      "##burg": 1647,
      "rock": 1648,
      "side": 1649,
      "play": 1650,
      "present": 1651,
      "1901": 1652,
      "63": 1653,
      "##ah": 1654,
      "partie": 1655,
      "sy": 1656,
      "VI": 1657,
      "Brasil": 1658,
      "Pada": 1659,
      "Su": 1660,
      "Von": 1661,
      "banda": 1662,
      "Tom": 1663,
      "##age": 1664,
      "if": 1665,
      "##sche": 1666,
      "##tus": 1667,
      "primo": 1668,
      "Atlas": 1669,
      "water": 1670,
      "##ksi": 1671,
      "Hill": 1672,
      "##ique": 1673,
      "kingdom": 1674,
      "##ła": 1675,
      "received": 1676,
      "bio": 1677,
      "Jones": 1678,
      "##ás": 1679,
      "Anna": 1680,
      "##ano": 1681,
      "1902": 1682,
      "published": 1683,
      "##ido": 1684,
      "word": 1685,
      "96": 1686,
      "1890": 1687,
      "61": 1688,
      "67": 1689,
      "Chicago": 1690,
      "mar": 1691,
      "81": 1692,
      "served": 1693,
      "98": 1694,
      "97": 1695,
      "point": 1696,
      "##ð": 1697,
      "##ros": 1698,
      "Santiago": 1699,
      "##liche": 1700,
      "mort": 1701,
      "List": 1702,
      "Championship": 1703,
      "Jack": 1704,
      "Bureau": 1705,
      "##ino": 1706,
      "##mann": 1707,
      "##cu": 1708,
      "##nek": 1709,
      "##dy": 1710,
      "match": 1711,
      "Awards": 1712,
      "temps": 1713,
      "Roman": 1714,
      "Day": 1715,
      "mu": 1716,
      "include": 1717,
      "top": 1718,
      "Juli": 1719,
      "700": 1720,
      "##ü": 1721,
      "68": 1722,
      "##mer": 1723,
      "because": 1724,
      "Cerambycidae": 1725,
      "etc": 1726,
      "Juni": 1727,
      "pri": 1728,
      "mens": 1729,
      "within": 1730,
      "Real": 1731,
      "##ms": 1732,
      "##ito": 1733,
      "##tet": 1734,
      "Son": 1735,
      "##H": 1736,
      "central": 1737,
      "##inen": 1738,
      "Por": 1739,
      "along": 1740,
      "five": 1741,
      "Sa": 1742,
      "byla": 1743,
      "##lı": 1744,
      "83": 1745,
      "record": 1746,
      "España": 1747,
      "##jen": 1748,
      "said": 1749,
      "Internet": 1750,
      "##ego": 1751,
      "Albert": 1752,
      "Culture": 1753,
      "Marine": 1754,
      "76": 1755,
      "radio": 1756,
      "orang": 1757,
      "provincia": 1758,
      "##ate": 1759,
      "##nje": 1760,
      "##ima": 1761,
      "six": 1762,
      "puis": 1763,
      "important": 1764,
      "##ium": 1765,
      "##ens": 1766,
      "92": 1767,
      "##jos": 1768,
      "director": 1769,
      "PDF": 1770,
      "members": 1771,
      "Texas": 1772,
      "last": 1773,
      "million": 1774,
      "small": 1775,
      "Album": 1776,
      "##ari": 1777,
      "Young": 1778,
      "93": 1779,
      "Big": 1780,
      "died": 1781,
      "program": 1782,
      "football": 1783,
      "What": 1784,
      "1898": 1785,
      "78": 1786,
      "pel": 1787,
      "Williams": 1788,
      "##kt": 1789,
      "Football": 1790,
      "français": 1791,
      "années": 1792,
      "best": 1793,
      "Walter": 1794,
      "##ono": 1795,
      "contre": 1796,
      "71": 1797,
      "Este": 1798,
      "##ő": 1799,
      "bila": 1800,
      "media": 1801,
      "91": 1802,
      "##aan": 1803,
      "##wy": 1804,
      "##ι": 1805,
      "77": 1806,
      "Party": 1807,
      "international": 1808,
      "74": 1809,
      "##lis": 1810,
      "##leri": 1811,
      "lors": 1812,
      "jo": 1813,
      "own": 1814,
      "Indian": 1815,
      "73": 1816,
      "Vol": 1817,
      "##zy": 1818,
      "1897": 1819,
      "During": 1820,
      "1896": 1821,
      "##rat": 1822,
      "##lig": 1823,
      "zo": 1824,
      "vo": 1825,
      "death": 1826,
      "very": 1827,
      "##ver": 1828,
      "DVD": 1829,
      "air": 1830,
      "peut": 1831,
      "1899": 1832,
      "##gt": 1833,
      "69": 1834,
      "##ceae": 1835,
      "vers": 1836,
      "##we": 1837,
      "Academy": 1838,
      "87": 1839,
      "##nja": 1840,
      "building": 1841,
      "##sten": 1842,
      "##gu": 1843,
      "yr": 1844,
      "satu": 1845,
      "Great": 1846,
      "ela": 1847,
      "Under": 1848,
      "Sant": 1849,
      "importante": 1850,
      "##nis": 1851,
      "1895": 1852,
      "popular": 1853,
      "Lac": 1854,
      "lang": 1855,
      "id": 1856,
      "mis": 1857,
      "control": 1858,
      "Of": 1859,
      "With": 1860,
      "##č": 1861,
      "##ld": 1862,
      "Brown": 1863,
      "third": 1864,
      "##let": 1865,
      "Johann": 1866,
      "##ques": 1867,
      "ele": 1868,
      "services": 1869,
      "89": 1870,
      "tym": 1871,
      "Nam": 1872,
      "Werner": 1873,
      "still": 1874,
      "Road": 1875,
      "##ν": 1876,
      "trois": 1877,
      "##ké": 1878,
      "##rum": 1879,
      "Bei": 1880,
      "Wilhelm": 1881,
      "centre": 1882,
      "##X": 1883,
      "##pi": 1884,
      "those": 1885,
      "##ara": 1886,
      "col": 1887,
      "Cerro": 1888,
      "##od": 1889,
      "##ys": 1890,
      "##tti": 1891,
      "Top": 1892,
      "fou": 1893,
      "And": 1894,
      "Church": 1895,
      "children": 1896,
      "Mit": 1897,
      "Night": 1898,
      "##ite": 1899,
      "##pen": 1900,
      "##per": 1901,
      "vol": 1902,
      "##ez": 1903,
      "By": 1904,
      "##og": 1905,
      "ter": 1906,
      "##ato": 1907,
      "1889": 1908,
      "country": 1909,
      "vier": 1910,
      "1880": 1911,
      "##nak": 1912,
      "ia": 1913,
      "##use": 1914,
      "Version": 1915,
      "##ele": 1916,
      "included": 1917,
      "jusqu": 1918,
      "Jacques": 1919,
      "mayor": 1920,
      "book": 1921,
      "94": 1922,
      "##nti": 1923,
      "##ser": 1924,
      "north": 1925,
      "né": 1926,
      "María": 1927,
      "Army": 1928,
      "lat": 1929,
      "##ster": 1930,
      "##schen": 1931,
      "##ue": 1932,
      "##ť": 1933,
      "Germany": 1934,
      "##sia": 1935,
      "eds": 1936,
      "Asia": 1937,
      "##ras": 1938,
      "##ret": 1939,
      "Super": 1940,
      "causa": 1941,
      "points": 1942,
      "79": 1943,
      "wo": 1944,
      "ano": 1945,
      "1870": 1946,
      "Grande": 1947,
      "##än": 1948,
      "##ova": 1949,
      "##sko": 1950,
      "##chi": 1951,
      "type": 1952,
      "##ile": 1953,
      "President": 1954,
      "Scott": 1955,
      "tai": 1956,
      "Luis": 1957,
      "##isch": 1958,
      "##sse": 1959,
      "##tar": 1960,
      "just": 1961,
      "Council": 1962,
      "##ane": 1963,
      "##ija": 1964,
      "Social": 1965,
      "Australian": 1966,
      "##iva": 1967,
      "Prix": 1968,
      "Guerra": 1969,
      "Centre": 1970,
      "twee": 1971,
      "dove": 1972,
      "tour": 1973,
      "##ş": 1974,
      "ces": 1975,
      "Con": 1976,
      "Pedro": 1977,
      "avant": 1978,
      "Sir": 1979,
      "Argentina": 1980,
      "Max": 1981,
      "led": 1982,
      "Ende": 1983,
      "another": 1984,
      "We": 1985,
      "##bar": 1986,
      "##ye": 1987,
      "comune": 1988,
      "piano": 1989,
      "Africa": 1990,
      "So": 1991,
      "near": 1992,
      "ovat": 1993,
      "title": 1994,
      "see": 1995,
      "##su": 1996,
      "Liga": 1997,
      "1886": 1998,
      "old": 1999,
      "often": 2000,
      "Iran": 2001,
      "different": 2002,
      "##rie": 2003,
      "Windows": 2004,
      "1885": 2005,
      "très": 2006,
      "##kom": 2007,
      "##sel": 2008,
      "Harry": 2009,
      "Mr": 2010,
      "Verlag": 2011,
      "##ona": 2012,
      "##mas": 2013,
      "dar": 2014,
      "1894": 2015,
      "##one": 2016,
      "player": 2017,
      "information": 2018,
      "##ade": 2019,
      "president": 2020,
      "Department": 2021,
      "down": 2022,
      "Little": 2023,
      "Arts": 2024,
      "Portugal": 2025,
      "Di": 2026,
      "nas": 2027,
      "##ák": 2028,
      "Power": 2029,
      "##line": 2030,
      "sen": 2031,
      "##van": 2032,
      "position": 2033,
      "Research": 2034,
      "1893": 2035,
      "##ft": 2036,
      "live": 2037,
      "Meyer": 2038,
      "##cha": 2039,
      "Jr": 2040,
      "1892": 2041,
      "##dd": 2042,
      "groupe": 2043,
      "role": 2044,
      "Blue": 2045,
      "what": 2046,
      "##net": 2047,
      "ich": 2048,
      "fins": 2049,
      "Sciences": 2050,
      "1891": 2051,
      "##ais": 2052,
      "##eur": 2053,
      "VII": 2054,
      "##ça": 2055,
      "order": 2056,
      "Israel": 2057,
      "François": 2058,
      "Francia": 2059,
      "##aren": 2060,
      "web": 2061,
      "car": 2062,
      "late": 2063,
      "tout": 2064,
      "##ey": 2065,
      "hoa": 2066,
      "##ira": 2067,
      "bet": 2068,
      "described": 2069,
      "Deutschland": 2070,
      "##uk": 2071,
      "poi": 2072,
      "##lin": 2073,
      "career": 2074,
      "grand": 2075,
      "##ore": 2076,
      "Men": 2077,
      "you": 2078,
      "Dans": 2079,
      "##ena": 2080,
      "##W": 2081,
      "Global": 2082,
      "##ise": 2083,
      "Teil": 2084,
      "##vu": 2085,
      "##est": 2086,
      "1888": 2087,
      "tu": 2088,
      "110": 2089,
      "XVIII": 2090,
      "moved": 2091,
      "##ika": 2092,
      "##rn": 2093,
      "Joe": 2094,
      "##uje": 2095,
      "plan": 2096,
      "durant": 2097,
      "Green": 2098,
      "Lo": 2099,
      "Universität": 2100,
      "Adam": 2101,
      "Good": 2102,
      "Els": 2103,
      "fel": 2104,
      "##zu": 2105,
      "hai": 2106,
      "Wilson": 2107,
      "make": 2108,
      "XVI": 2109,
      "##uri": 2110,
      "grandes": 2111,
      "studio": 2112,
      "##able": 2113,
      "Co": 2114,
      "plusieurs": 2115,
      "Creek": 2116,
      "Manuel": 2117,
      "##sis": 2118,
      "monde": 2119,
      "ez": 2120,
      "Ed": 2121,
      "sans": 2122,
      "##ité": 2123,
      "##ná": 2124,
      "again": 2125,
      "Nova": 2126,
      "IUCN": 2127,
      "period": 2128,
      "##vel": 2129,
      "##een": 2130,
      "##ali": 2131,
      "Arthur": 2132,
      "##ring": 2133,
      "##ves": 2134,
      "Instituto": 2135,
      "##α": 2136,
      "south": 2137,
      "support": 2138,
      "Bay": 2139,
      "##ses": 2140,
      "Copa": 2141,
      "Chris": 2142,
      "##ges": 2143,
      "kun": 2144,
      "Bill": 2145,
      "avril": 2146,
      "quatre": 2147,
      "Western": 2148,
      "Prema": 2149,
      "##ard": 2150,
      "Jackson": 2151,
      "way": 2152,
      "Afrika": 2153,
      "much": 2154,
      "ho": 2155,
      "##ente": 2156,
      "ils": 2157,
      "Song": 2158,
      "power": 2159,
      "##ih": 2160,
      "##ín": 2161,
      "women": 2162,
      "gant": 2163,
      "model": 2164,
      "father": 2165,
      "musical": 2166,
      "##ham": 2167,
      "##ende": 2168,
      "##tra": 2169,
      "##ž": 2170,
      "Au": 2171,
      "Serie": 2172,
      "##ncia": 2173,
      "similar": 2174,
      "Two": 2175,
      "house": 2176,
      "Law": 2177,
      "##lia": 2178,
      "Chile": 2179,
      "##ps": 2180,
      "html": 2181,
      "fois": 2182,
      "ary": 2183,
      "##eri": 2184,
      "Her": 2185,
      "##ès": 2186,
      "1878": 2187,
      "##rea": 2188,
      "berg": 2189,
      "Series": 2190,
      "Mae": 2191,
      "Johnson": 2192,
      "Names": 2193,
      "established": 2194,
      "even": 2195,
      "1883": 2196,
      "maj": 2197,
      "These": 2198,
      "##ées": 2199,
      "law": 2200,
      "Li": 2201,
      "##ati": 2202,
      "article": 2203,
      "États": 2204,
      "##sh": 2205,
      "##ds": 2206,
      "Mike": 2207,
      "Platz": 2208,
      "Gran": 2209,
      "Michel": 2210,
      "##ix": 2211,
      "##tic": 2212,
      "level": 2213,
      "1887": 2214,
      "Thompson": 2215,
      "##nom": 2216,
      "face": 2217,
      "Giovanni": 2218,
      "Cette": 2219,
      "Chinese": 2220,
      "München": 2221,
      "far": 2222,
      "Ben": 2223,
      "Register": 2224,
      "##ì": 2225,
      "Long": 2226,
      "Steve": 2227,
      "##ami": 2228,
      "##ula": 2229,
      "suite": 2230,
      "##ide": 2231,
      "norr": 2232,
      "##tos": 2233,
      "vil": 2234,
      "##ee": 2235,
      "##ala": 2236,
      "Philip": 2237,
      "##ons": 2238,
      "among": 2239,
      "hier": 2240,
      "##cs": 2241,
      "games": 2242,
      "opera": 2243,
      "1860": 2244,
      "cap": 2245,
      "Ce": 2246,
      "##tà": 2247,
      "##è": 2248,
      "Media": 2249,
      "##ły": 2250,
      "Dit": 2251,
      "Office": 2252,
      "##met": 2253,
      "style": 2254,
      "Sud": 2255,
      "community": 2256,
      "circa": 2257,
      "##het": 2258,
      "Paulo": 2259,
      "##op": 2260,
      "##tik": 2261,
      "1884": 2262,
      "##fa": 2263,
      "##nza": 2264,
      "##via": 2265,
      "Heinrich": 2266,
      "full": 2267,
      "##yn": 2268,
      "using": 2269,
      "came": 2270,
      "Force": 2271,
      "##mos": 2272,
      "##ford": 2273,
      "130": 2274,
      "foram": 2275,
      "##cher": 2276,
      "##ism": 2277,
      "written": 2278,
      "Taylor": 2279,
      "##issa": 2280,
      "development": 2281,
      "##ç": 2282,
      "construction": 2283,
      "##field": 2284,
      "natural": 2285,
      "sai": 2286,
      "gan": 2287,
      "list": 2288,
      "php": 2289,
      "##ss": 2290,
      "1848": 2291,
      "debut": 2292,
      "1882": 2293,
      "1881": 2294,
      "juin": 2295,
      "produced": 2296,
      "##tis": 2297,
      "fine": 2298,
      "##ici": 2299,
      "Lord": 2300,
      "went": 2301,
      "right": 2302,
      "Show": 2303,
      "next": 2304,
      "##heid": 2305,
      "lub": 2306,
      "modern": 2307,
      "started": 2308,
      "become": 2309,
      "Russian": 2310,
      "avait": 2311,
      "times": 2312,
      "famille": 2313,
      "Columbia": 2314,
      "##nan": 2315,
      "##rna": 2316,
      "année": 2317,
      "case": 2318,
      "##eg": 2319,
      "tous": 2320,
      "##urs": 2321,
      "Russell": 2322,
      "ru": 2323,
      "min": 2324,
      "##tat": 2325,
      "real": 2326,
      "Service": 2327,
      "Anne": 2328,
      "Are": 2329,
      "##cija": 2330,
      "##tura": 2331,
      "Para": 2332,
      "##ous": 2333,
      "students": 2334,
      "##ell": 2335,
      "##ados": 2336,
      "given": 2337,
      "avoir": 2338,
      "Une": 2339,
      "1st": 2340,
      "1871": 2341,
      "Roger": 2342,
      "lain": 2343,
      "##ës": 2344,
      "##ο": 2345,
      "Ali": 2346,
      "##po": 2347,
      "Billboard": 2348,
      "married": 2349,
      "##mus": 2350,
      "UEFA": 2351,
      "janvier": 2352,
      "##rer": 2353,
      "Bank": 2354,
      "Women": 2355,
      "##nn": 2356,
      "Kim": 2357,
      "material": 2358,
      "900": 2359,
      "##mes": 2360,
      "various": 2361,
      "##nim": 2362,
      "average": 2363,
      "Your": 2364,
      "fire": 2365,
      "septembre": 2366,
      "Plants": 2367,
      "##ingen": 2368,
      "##ese": 2369,
      "Year": 2370,
      "round": 2371,
      "Otto": 2372,
      "take": 2373,
      "website": 2374,
      "##že": 2375,
      "head": 2376,
      "##ù": 2377,
      "##bra": 2378,
      "Bob": 2379,
      "##cio": 2380,
      "gov": 2381,
      "origine": 2382,
      "morte": 2383,
      "dort": 2384,
      "let": 2385,
      "class": 2386,
      "##ht": 2387,
      "##ral": 2388,
      "##ți": 2389,
      "Inc": 2390,
      "hay": 2391,
      "saison": 2392,
      "Ohio": 2393,
      "octobre": 2394,
      "1861": 2395,
      "Henri": 2396,
      "story": 2397,
      "ac": 2398,
      "1864": 2399,
      "Malaysia": 2400,
      "ging": 2401,
      "1857": 2402,
      "1879": 2403,
      "##én": 2404,
      "Virginia": 2405,
      "modo": 2406,
      "##tica": 2407,
      "##yi": 2408,
      "Empire": 2409,
      "##vé": 2410,
      "Entre": 2411,
      "That": 2412,
      "1800": 2413,
      "##ket": 2414,
      "plu": 2415,
      "##eren": 2416,
      "1876": 2417,
      "Up": 2418,
      "fer": 2419,
      "Wien": 2420,
      "##llo": 2421,
      "Victoria": 2422,
      "without": 2423,
      "date": 2424,
      "Esta": 2425,
      "Florida": 2426,
      "yo": 2427,
      "tal": 2428,
      "having": 2429,
      "Reference": 2430,
      "Republic": 2431,
      "Seine": 2432,
      "Boston": 2433,
      "design": 2434,
      "election": 2435,
      "sia": 2436,
      "##ismo": 2437,
      "Special": 2438,
      "##ungen": 2439,
      "##tz": 2440,
      "mer": 2441,
      "language": 2442,
      "Queen": 2443,
      "dai": 2444,
      "FIFA": 2445,
      "store": 2446,
      "VIII": 2447,
      "##iem": 2448,
      "Program": 2449,
      "short": 2450,
      "pop": 2451,
      "term": 2452,
      "contro": 2453,
      "##hu": 2454,
      "##bre": 2455,
      "Foi": 2456,
      "forces": 2457,
      "Alfred": 2458,
      "Ottawa": 2459,
      "##rte": 2460,
      "west": 2461,
      "political": 2462,
      "download": 2463,
      "Francis": 2464,
      "##ero": 2465,
      "Ha": 2466,
      "##igen": 2467,
      "Ma": 2468,
      "created": 2469,
      "Francesco": 2470,
      "##ement": 2471,
      "Tony": 2472,
      "division": 2473,
      "Franz": 2474,
      "Unis": 2475,
      "##gang": 2476,
      "Lewis": 2477,
      "##bus": 2478,
      "Een": 2479,
      "##bel": 2480,
      "vie": 2481,
      "Old": 2482,
      "cc": 2483,
      "1877": 2484,
      "titre": 2485,
      "##rin": 2486,
      "autre": 2487,
      "##ili": 2488,
      "ara": 2489,
      "ft": 2490,
      "juillet": 2491,
      "##los": 2492,
      "1873": 2493,
      "1863": 2494,
      "1810": 2495,
      "metal": 2496,
      "Je": 2497,
      "1875": 2498,
      "##ila": 2499,
      "however": 2500,
      "Book": 2501,
      "1633": 2502,
      "##ging": 2503,
      "Des": 2504,
      "##idad": 2505,
      "Commons": 2506,
      "1865": 2507,
      "Natural": 2508,
      "##nosti": 2509,
      "##erd": 2510,
      "##ff": 2511,
      "1867": 2512,
      "few": 2513,
      "east": 2514,
      "Digital": 2515,
      "communes": 2516,
      "André": 2517,
      "##ét": 2518,
      "African": 2519,
      "Sky": 2520,
      "##vis": 2521,
      "##ram": 2522,
      "México": 2523,
      "Japanese": 2524,
      "160": 2525,
      "pays": 2526,
      "##dia": 2527,
      "professor": 2528,
      "announced": 2529,
      "arte": 2530,
      "worked": 2531,
      "##rar": 2532,
      "1868": 2533,
      "##ede": 2534,
      "Stephen": 2535,
      "Patrick": 2536,
      "sei": 2537,
      "Saison": 2538,
      "Ray": 2539,
      "ima": 2540,
      "Villa": 2541,
      "half": 2542,
      "1850": 2543,
      "##iv": 2544,
      "Some": 2545,
      "Google": 2546,
      "##ën": 2547,
      "##ong": 2548,
      "XIII": 2549,
      "online": 2550,
      "Robinson": 2551,
      "Home": 2552,
      "Universidad": 2553,
      "Costa": 2554,
      "##iti": 2555,
      "##ando": 2556,
      "Miguel": 2557,
      "dy": 2558,
      "Johannes": 2559,
      "180": 2560,
      "joined": 2561,
      "##jas": 2562,
      "##if": 2563,
      "Region": 2564,
      "project": 2565,
      "1500": 2566,
      "##rus": 2567,
      "See": 2568,
      "economic": 2569,
      "structure": 2570,
      "Romania": 2571,
      "##iques": 2572,
      "Buenos": 2573,
      "décembre": 2574,
      "route": 2575,
      "eo": 2576,
      "ass": 2577,
      "Nature": 2578,
      "field": 2579,
      "1866": 2580,
      "1872": 2581,
      "SS": 2582,
      "XVII": 2583,
      "1859": 2584,
      "équipe": 2585,
      "theo": 2586,
      "vita": 2587,
      "vir": 2588,
      "wrote": 2589,
      "vi": 2590,
      "sos": 2591,
      "140": 2592,
      "Ia": 2593,
      "Aires": 2594,
      "free": 2595,
      "Airport": 2596,
      "notamment": 2597,
      "##Z": 2598,
      "Sun": 2599,
      "Act": 2600,
      "##nym": 2601,
      "Rainfall": 2602,
      "##ding": 2603,
      "updated": 2604,
      "Brian": 2605,
      "1869": 2606,
      "##ern": 2607,
      "##heim": 2608,
      "##las": 2609,
      "général": 2610,
      "##ett": 2611,
      "sub": 2612,
      "août": 2613,
      "1862": 2614,
      "days": 2615,
      "lieu": 2616,
      "##jon": 2617,
      "Georg": 2618,
      "##ña": 2619,
      "##nas": 2620,
      "Wikipedia": 2621,
      "##ay": 2622,
      "Andrew": 2623,
      "##elle": 2624,
      "tarde": 2625,
      "Books": 2626,
      "Lady": 2627,
      "Jawa": 2628,
      "works": 2629,
      "##ness": 2630,
      "Mario": 2631,
      "actual": 2632,
      "##ani": 2633,
      "God": 2634,
      "Amsterdam": 2635,
      "Pro": 2636,
      "Fernando": 2637,
      "Canadian": 2638,
      "Studies": 2639,
      "race": 2640,
      "Bad": 2641,
      "returned": 2642,
      "1874": 2643,
      "Oscar": 2644,
      "bol": 2645,
      "party": 2646,
      "military": 2647,
      "status": 2648,
      "fi": 2649,
      "aj": 2650,
      "125": 2651,
      "XIV": 2652,
      "professional": 2653,
      "Online": 2654,
      "Eric": 2655,
      "##ella": 2656,
      "municipio": 2657,
      "Game": 2658,
      "month": 2659,
      "actor": 2660,
      "##tre": 2661,
      "release": 2662,
      "##nts": 2663,
      "Za": 2664,
      "##lus": 2665,
      "Institut": 2666,
      "founded": 2667,
      "##tive": 2668,
      "Londres": 2669,
      "##dad": 2670,
      "Guide": 2671,
      "open": 2672,
      "##lli": 2673,
      "Fue": 2674,
      "Hot": 2675,
      "Publishing": 2676,
      "##ék": 2677,
      "run": 2678,
      "Korea": 2679,
      "XII": 2680,
      "XV": 2681,
      "Court": 2682,
      "##nus": 2683,
      "2nd": 2684,
      "lead": 2685,
      "research": 2686,
      "Dictionary": 2687,
      "EP": 2688,
      "Ludwig": 2689,
      "##uta": 2690,
      "https": 2691,
      "101": 2692,
      "win": 2693,
      "possible": 2694,
      "faire": 2695,
      "##way": 2696,
      "##nica": 2697,
      "##bach": 2698,
      "color": 2699,
      "Wales": 2700,
      "Oslo": 2701,
      "##vas": 2702,
      "Point": 2703,
      "Library": 2704,
      "miles": 2705,
      "pola": 2706,
      "homes": 2707,
      "business": 2708,
      "According": 2709,
      "Mission": 2710,
      "guerre": 2711,
      "Marco": 2712,
      "civil": 2713,
      "television": 2714,
      "Jakarta": 2715,
      "hem": 2716,
      "inte": 2717,
      "Mundial": 2718,
      "Elizabeth": 2719,
      "lost": 2720,
      "Victor": 2721,
      "nationale": 2722,
      "dag": 2723,
      "Jim": 2724,
      "human": 2725,
      "Pour": 2726,
      "Second": 2727,
      "##erte": 2728,
      "Auf": 2729,
      "Prince": 2730,
      "forme": 2731,
      "Entertainment": 2732,
      "##tal": 2733,
      "##ae": 2734,
      "##ń": 2735,
      "##ties": 2736,
      "Como": 2737,
      "church": 2738,
      "française": 2739,
      "action": 2740,
      "##ál": 2741,
      "##her": 2742,
      "##zer": 2743,
      "cours": 2744,
      "##una": 2745,
      "##iro": 2746,
      "Après": 2747,
      "##xa": 2748,
      "tant": 2749,
      "eus": 2750,
      "gab": 2751,
      "magyar": 2752,
      "recorded": 2753,
      "sede": 2754,
      "together": 2755,
      "superficie": 2756,
      "##ové": 2757,
      "every": 2758,
      "People": 2759,
      "én": 2760,
      "##tro": 2761,
      "rei": 2762,
      "Set": 2763,
      "dette": 2764,
      "Miss": 2765,
      "Ta": 2766,
      "anti": 2767,
      "##illa": 2768,
      "elected": 2769,
      "Ford": 2770,
      "##vá": 2771,
      "leurs": 2772,
      "##owe": 2773,
      "Dan": 2774,
      "Century": 2775,
      "Sam": 2776,
      "##osa": 2777,
      "##bles": 2778,
      "continued": 2779,
      "films": 2780,
      "Davis": 2781,
      "dio": 2782,
      "nouveau": 2783,
      "Mount": 2784,
      "considered": 2785,
      "Wolfgang": 2786,
      "making": 2787,
      "Station": 2788,
      "Project": 2789,
      "office": 2790,
      "ok": 2791,
      "platt": 2792,
      "principale": 2793,
      "Alan": 2794,
      "track": 2795,
      "moment": 2796,
      "Claude": 2797,
      "##cus": 2798,
      "episode": 2799,
      "Be": 2800,
      "chi": 2801,
      "Fort": 2802,
      "roman": 2803,
      "Carolina": 2804,
      "vai": 2805,
      "body": 2806,
      "##ori": 2807,
      "IX": 2808,
      "province": 2809,
      "Nueva": 2810,
      "##bia": 2811,
      "example": 2812,
      "Nr": 2813,
      "Minister": 2814,
      "Line": 2815,
      "Estado": 2816,
      "Most": 2817,
      "##isk": 2818,
      "Gold": 2819,
      "##rne": 2820,
      "policy": 2821,
      "él": 2822,
      "edition": 2823,
      "encore": 2824,
      "##jan": 2825,
      "opened": 2826,
      "ere": 2827,
      "syn": 2828,
      "Town": 2829,
      "ti": 2830,
      "##hin": 2831,
      "wife": 2832,
      "##nos": 2833,
      "région": 2834,
      "Professor": 2835,
      "Valley": 2836,
      "autor": 2837,
      "##š": 2838,
      "##wan": 2839,
      "##ās": 2840,
      "Model": 2841,
      "kas": 2842,
      "##ich": 2843,
      "##fi": 2844,
      "teams": 2845,
      "stad": 2846,
      "##ins": 2847,
      "##ré": 2848,
      "##gar": 2849,
      "event": 2850,
      "##lui": 2851,
      "##ille": 2852,
      "news": 2853,
      "##lige": 2854,
      "Việt": 2855,
      "Auch": 2856,
      "Golden": 2857,
      "performance": 2858,
      "##lse": 2859,
      "##san": 2860,
      "Cruz": 2861,
      "Carlo": 2862,
      "prema": 2863,
      "Go": 2864,
      "nam": 2865,
      "Enrique": 2866,
      "moins": 2867,
      "eu": 2868,
      "##ful": 2869,
      "DC": 2870,
      "Jersey": 2871,
      "geographical": 2872,
      "Bernard": 2873,
      "Zealand": 2874,
      "Sur": 2875,
      "Corporation": 2876,
      "##feld": 2877,
      "active": 2878,
      "bug": 2879,
      "##nost": 2880,
      "##haus": 2881,
      "##ntes": 2882,
      "Stone": 2883,
      "sama": 2884,
      "Sydney": 2885,
      "Susan": 2886,
      "##ći": 2887,
      "special": 2888,
      "Austria": 2889,
      "ora": 2890,
      "Committee": 2891,
      "##uar": 2892,
      "Britannica": 2893,
      "##set": 2894,
      "Other": 2895,
      "Federal": 2896,
      "result": 2897,
      "##del": 2898,
      "##bb": 2899,
      "##lio": 2900,
      "##isme": 2901,
      "put": 2902,
      "Games": 2903,
      "Development": 2904,
      "histoire": 2905,
      "Out": 2906,
      "février": 2907,
      "##kel": 2908,
      "Princeton": 2909,
      "Who": 2910,
      "qua": 2911,
      "Um": 2912,
      "105": 2913,
      "##ag": 2914,
      "Roy": 2915,
      "Girl": 2916,
      "##ct": 2917,
      "##kou": 2918,
      "1830": 2919,
      "If": 2920,
      "Post": 2921,
      "sent": 2922,
      "##ments": 2923,
      "areas": 2924,
      "##zie": 2925,
      "##ión": 2926,
      "##isi": 2927,
      "##dal": 2928,
      "Foundation": 2929,
      "Ernst": 2930,
      "Sin": 2931,
      "mange": 2932,
      "appeared": 2933,
      "##nog": 2934,
      "Space": 2935,
      "##ose": 2936,
      "hag": 2937,
      "peu": 2938,
      "Kong": 2939,
      "available": 2940,
      "Government": 2941,
      "##nar": 2942,
      "soit": 2943,
      "##ões": 2944,
      "##ces": 2945,
      "further": 2946,
      "lag": 2947,
      "front": 2948,
      "##up": 2949,
      "private": 2950,
      "Rome": 2951,
      "Pacific": 2952,
      "##ait": 2953,
      "While": 2954,
      "##fe": 2955,
      "stand": 2956,
      "Stockholm": 2957,
      "san": 2958,
      "growth": 2959,
      "Master": 2960,
      "tard": 2961,
      "Miller": 2962,
      "working": 2963,
      "Latin": 2964,
      "Für": 2965,
      "common": 2966,
      "living": 2967,
      "XI": 2968,
      "developed": 2969,
      "formed": 2970,
      "others": 2971,
      "Web": 2972,
      "Ireland": 2973,
      "##oi": 2974,
      "##oni": 2975,
      "##ante": 2976,
      "Hollywood": 2977,
      "ligne": 2978,
      "##gas": 2979,
      "Public": 2980,
      "Kingdom": 2981,
      "##sson": 2982,
      "##ño": 2983,
      "##ean": 2984,
      "Story": 2985,
      "lu": 2986,
      "##ło": 2987,
      "Spanish": 2988,
      "Russia": 2989,
      "Diego": 2990,
      "embargo": 2991,
      "##υ": 2992,
      "census": 2993,
      "novel": 2994,
      "nebula": 2995,
      "##mar": 2996,
      "mondiale": 2997,
      "Bruce": 2998,
      "study": 2999,
      "Review": 3000,
      "1840": 3001,
      "mint": 3002,
      "##Y": 3003,
      "##pus": 3004,
      "Order": 3005,
      "eng": 3006,
      "Premier": 3007,
      "##rono": 3008,
      "entry": 3009,
      "Va": 3010,
      "##eta": 3011,
      "Pennsylvania": 3012,
      "Islam": 3013,
      "Alex": 3014,
      "science": 3015,
      "Yn": 3016,
      "official": 3017,
      "##nta": 3018,
      "Port": 3019,
      "##kat": 3020,
      "young": 3021,
      "Sea": 3022,
      "Premio": 3023,
      "Board": 3024,
      "Budapest": 3025,
      "##še": 3026,
      "Anthony": 3027,
      "##and": 3028,
      "Lepidoptera": 3029,
      "##ggio": 3030,
      "##wood": 3031,
      "addition": 3032,
      "himself": 3033,
      "##ete": 3034,
      "##zia": 3035,
      "Part": 3036,
      "##dores": 3037,
      "great": 3038,
      "signed": 3039,
      "although": 3040,
      "Navy": 3041,
      "##oa": 3042,
      "Network": 3043,
      "Movie": 3044,
      "##hen": 3045,
      "mare": 3046,
      "recensement": 3047,
      "never": 3048,
      "how": 3049,
      "América": 3050,
      "Regional": 3051,
      "interior": 3052,
      "tras": 3053,
      "devient": 3054,
      "Battle": 3055,
      "Last": 3056,
      "Milano": 3057,
      "cultural": 3058,
      "102": 3059,
      "should": 3060,
      "Can": 3061,
      "Janeiro": 3062,
      "Samuel": 3063,
      "Family": 3064,
      "##sku": 3065,
      "topon": 3066,
      "##isen": 3067,
      "##ette": 3068,
      "Biography": 3069,
      "Ort": 3070,
      "lett": 3071,
      "##fer": 3072,
      "NBA": 3073,
      "##tie": 3074,
      "Douglas": 3075,
      "neu": 3076,
      "Its": 3077,
      "##ivo": 3078,
      "court": 3079,
      "##jí": 3080,
      "parti": 3081,
      "celui": 3082,
      "Rose": 3083,
      "##ao": 3084,
      "map": 3085,
      "1858": 3086,
      "playing": 3087,
      "Fox": 3088,
      "##dá": 3089,
      "Main": 3090,
      "disco": 3091,
      "Non": 3092,
      "##dt": 3093,
      "section": 3094,
      "appointed": 3095,
      "##nou": 3096,
      "Gordon": 3097,
      "park": 3098,
      "##ö": 3099,
      "collection": 3100,
      "##werk": 3101,
      "Civil": 3102,
      "once": 3103,
      "##get": 3104,
      "Disney": 3105,
      "pendant": 3106,
      "##ši": 3107,
      "Monte": 3108,
      "ant": 3109,
      "tam": 3110,
      "Illinois": 3111,
      "hon": 3112,
      "Final": 3113,
      "Du": 3114,
      "##ary": 3115,
      "personal": 3116,
      "sea": 3117,
      "idea": 3118,
      "municipal": 3119,
      "Commission": 3120,
      "away": 3121,
      "education": 3122,
      "selon": 3123,
      "##ora": 3124,
      "hit": 3125,
      "Roberto": 3126,
      "filme": 3127,
      "##ych": 3128,
      "##dra": 3129,
      "Georges": 3130,
      "Santo": 3131,
      "##lag": 3132,
      "##min": 3133,
      "Summer": 3134,
      "##vano": 3135,
      "How": 3136,
      "Country": 3137,
      "exemple": 3138,
      "##pt": 3139,
      "current": 3140,
      "standard": 3141,
      "must": 3142,
      "donc": 3143,
      "##less": 3144,
      "vs": 3145,
      "Major": 3146,
      "cas": 3147,
      "##iya": 3148,
      "350": 3149,
      "Video": 3150,
      "##my": 3151,
      "nich": 3152,
      "##zza": 3153,
      "Trade": 3154,
      "Anderson": 3155,
      "##ans": 3156,
      "##ká": 3157,
      "Norte": 3158,
      "leader": 3159,
      "##če": 3160,
      "dois": 3161,
      "fils": 3162,
      "particular": 3163,
      "##ör": 3164,
      "Hamburg": 3165,
      "Microsoft": 3166,
      "##cos": 3167,
      "##tions": 3168,
      "##ść": 3169,
      "##vet": 3170,
      "politique": 3171,
      "force": 3172,
      "mil": 3173,
      "police": 3174,
      "fast": 3175,
      "person": 3176,
      "black": 3177,
      "Integrated": 3178,
      "río": 3179,
      "pot": 3180,
      "1856": 3181,
      "dua": 3182,
      "Sport": 3183,
      "Education": 3184,
      "##owa": 3185,
      "Leipzig": 3186,
      "polo": 3187,
      "##ého": 3188,
      "1854": 3189,
      "Report": 3190,
      "classification": 3191,
      "Casa": 3192,
      "kilometers": 3193,
      "Hong": 3194,
      "return": 3195,
      "##don": 3196,
      "diverse": 3197,
      "Howard": 3198,
      "##ē": 3199,
      "kang": 3200,
      "##nto": 3201,
      "character": 3202,
      "Heart": 3203,
      "File": 3204,
      "Allen": 3205,
      "though": 3206,
      "##zh": 3207,
      "Like": 3208,
      "does": 3209,
      "##ela": 3210,
      "taken": 3211,
      "Internacional": 3212,
      "Plant": 3213,
      "104": 3214,
      "##pan": 3215,
      "Southern": 3216,
      "aver": 3217,
      "Massachusetts": 3218,
      "my": 3219,
      "ham": 3220,
      "Ltd": 3221,
      "across": 3222,
      "Mountain": 3223,
      "process": 3224,
      "Three": 3225,
      "##tto": 3226,
      "Nations": 3227,
      "Campeonato": 3228,
      "bere": 3229,
      "start": 3230,
      "##ama": 3231,
      "1849": 3232,
      "opp": 3233,
      "##ola": 3234,
      "chef": 3235,
      "Theatre": 3236,
      "culture": 3237,
      "square": 3238,
      "hy": 3239,
      "##ast": 3240,
      "##det": 3241,
      "books": 3242,
      "tan": 3243,
      "stor": 3244,
      "##ava": 3245,
      "sine": 3246,
      "samo": 3247,
      "aby": 3248,
      "##tek": 3249,
      "##lari": 3250,
      "##iste": 3251,
      "mal": 3252,
      "##kar": 3253,
      "##ota": 3254,
      "good": 3255,
      "Joan": 3256,
      "tid": 3257,
      "inn": 3258,
      "##cion": 3259,
      "Planet": 3260,
      "sang": 3261,
      "##ário": 3262,
      "Anh": 3263,
      "début": 3264,
      "Village": 3265,
      "help": 3266,
      "##ân": 3267,
      "Colombia": 3268,
      "1855": 3269,
      "Frankfurt": 3270,
      "guitar": 3271,
      "dies": 3272,
      "hand": 3273,
      "Georgia": 3274,
      "Volume": 3275,
      "##mis": 3276,
      "##rsi": 3277,
      "festival": 3278,
      "daughter": 3279,
      "Christopher": 3280,
      "zone": 3281,
      "source": 3282,
      "##ön": 3283,
      "##iin": 3284,
      "genre": 3285,
      "Marc": 3286,
      "Toronto": 3287,
      "motor": 3288,
      "##iden": 3289,
      "white": 3290,
      "homme": 3291,
      "Catherine": 3292,
      "##º": 3293,
      "Québec": 3294,
      "Soviet": 3295,
      "Business": 3296,
      "performed": 3297,
      "events": 3298,
      "Greek": 3299,
      "##ī": 3300,
      "ada": 3301,
      "mother": 3302,
      "families": 3303,
      "minutes": 3304,
      "less": 3305,
      "1852": 3306,
      "Tokyo": 3307,
      "cause": 3308,
      "currently": 3309,
      "Tim": 3310,
      "dira": 3311,
      "Mexican": 3312,
      "get": 3313,
      "gen": 3314,
      "Norman": 3315,
      "3000": 3316,
      "terra": 3317,
      "sold": 3318,
      "##sto": 3319,
      "cao": 3320,
      "##iga": 3321,
      "##vy": 3322,
      "drama": 3323,
      "course": 3324,
      "Manchester": 3325,
      "Northern": 3326,
      "415": 3327,
      "gave": 3328,
      "largest": 3329,
      "##tin": 3330,
      "stage": 3331,
      "située": 3332,
      "##ije": 3333,
      "##sin": 3334,
      "Magazine": 3335,
      "Moore": 3336,
      "features": 3337,
      "Kevin": 3338,
      "upon": 3339,
      "Will": 3340,
      "##ō": 3341,
      "Boy": 3342,
      "##ries": 3343,
      "Deutsche": 3344,
      "Harper": 3345,
      "##art": 3346,
      "##tzen": 3347,
      "##ping": 3348,
      "Stanley": 3349,
      "alto": 3350,
      "Minor": 3351,
      "##vos": 3352,
      "Philippe": 3353,
      "170": 3354,
      "Hotel": 3355,
      "nouvelle": 3356,
      "##gia": 3357,
      "##J": 3358,
      "##stand": 3359,
      "##aria": 3360,
      "Human": 3361,
      "État": 3362,
      "Walker": 3363,
      "includes": 3364,
      "##ott": 3365,
      "Pakistan": 3366,
      "magazine": 3367,
      "Middle": 3368,
      "ani": 3369,
      "directed": 3370,
      "Gabriel": 3371,
      "change": 3372,
      "grad": 3373,
      "oa": 3374,
      "songs": 3375,
      "FM": 3376,
      "##dar": 3377,
      "##ias": 3378,
      "Death": 3379,
      "##lta": 3380,
      "##hus": 3381,
      "Catholic": 3382,
      "Hoa": 3383,
      "Michigan": 3384,
      "##vin": 3385,
      "Director": 3386,
      "Universal": 3387,
      "road": 3388,
      "##imo": 3389,
      "sale": 3390,
      "##nne": 3391,
      "ouest": 3392,
      "sé": 3393,
      "sense": 3394,
      "Finland": 3395,
      "ins": 3396,
      "alt": 3397,
      "Sports": 3398,
      "##its": 3399,
      "quali": 3400,
      "designed": 3401,
      "Burton": 3402,
      "##či": 3403,
      "Gary": 3404,
      "DNA": 3405,
      "##port": 3406,
      "Bell": 3407,
      "##asi": 3408,
      "##ish": 3409,
      "quelques": 3410,
      "m²": 3411,
      "Ze": 3412,
      "té": 3413,
      "##ség": 3414,
      "Small": 3415,
      "1851": 3416,
      "text": 3417,
      "##heit": 3418,
      "ordre": 3419,
      "Jane": 3420,
      "Johnny": 3421,
      "103": 3422,
      "ger": 3423,
      "months": 3424,
      "originally": 3425,
      "issue": 3426,
      "##fen": 3427,
      "Maurice": 3428,
      "##dom": 3429,
      "##house": 3430,
      "1853": 3431,
      "sol": 3432,
      "parts": 3433,
      "shows": 3434,
      "tae": 3435,
      "ensemble": 3436,
      "##wie": 3437,
      "Coppa": 3438,
      "##leg": 3439,
      "7th": 3440,
      "celle": 3441,
      "##tore": 3442,
      "##ios": 3443,
      "Since": 3444,
      "##yo": 3445,
      "Ab": 3446,
      "Est": 3447,
      "direction": 3448,
      "range": 3449,
      "Beach": 3450,
      "mid": 3451,
      "mod": 3452,
      "usa": 3453,
      "##din": 3454,
      "league": 3455,
      "##ient": 3456,
      "##ial": 3457,
      "format": 3458,
      "Irish": 3459,
      "low": 3460,
      "##king": 3461,
      "center": 3462,
      "Ivan": 3463,
      "vu": 3464,
      "tri": 3465,
      "église": 3466,
      "##tel": 3467,
      "Hitler": 3468,
      "##bile": 3469,
      "##că": 3470,
      "groups": 3471,
      "climate": 3472,
      "Denne": 3473,
      "seen": 3474,
      "##čka": 3475,
      "nova": 3476,
      "1846": 3477,
      "Way": 3478,
      "Province": 3479,
      "Cross": 3480,
      "regular": 3481,
      "anterior": 3482,
      "##tum": 3483,
      "##ñ": 3484,
      "##liga": 3485,
      "Giuseppe": 3486,
      "115": 3487,
      "roi": 3488,
      "Light": 3489,
      "##mia": 3490,
      "ba": 3491,
      "followed": 3492,
      "planet": 3493,
      "Venezuela": 3494,
      "ku": 3495,
      "##tur": 3496,
      "##lé": 3497,
      "Centro": 3498,
      "coach": 3499,
      "classe": 3500,
      "##gs": 3501,
      "Over": 3502,
      "##ev": 3503,
      "Johan": 3504,
      "##lon": 3505,
      "##red": 3506,
      "##jes": 3507,
      "##ngen": 3508,
      "disse": 3509,
      "##menti": 3510,
      "training": 3511,
      "##ński": 3512,
      "Historia": 3513,
      "##ngan": 3514,
      "Name": 3515,
      "Mar": 3516,
      "vocals": 3517,
      "brother": 3518,
      "Clark": 3519,
      "##tori": 3520,
      "taun": 3521,
      "Mais": 3522,
      "Josef": 3523,
      "Fall": 3524,
      "Encyclopædia": 3525,
      "1847": 3526,
      "medio": 3527,
      "light": 3528,
      "seven": 3529,
      "García": 3530,
      "##mit": 3531,
      "##gh": 3532,
      "1815": 3533,
      "##usi": 3534,
      "completed": 3535,
      "âge": 3536,
      "Although": 3537,
      "Kelly": 3538,
      "double": 3539,
      "##ría": 3540,
      "##rak": 3541,
      "##cal": 3542,
      "Alberto": 3543,
      "##hn": 3544,
      "##zar": 3545,
      "##like": 3546,
      "Milan": 3547,
      "Meter": 3548,
      "Loire": 3549,
      "dalle": 3550,
      "220": 3551,
      "Marcus": 3552,
      "Institution": 3553,
      "##yon": 3554,
      "111": 3555,
      "Macmillan": 3556,
      "Ontario": 3557,
      "uns": 3558,
      "importantes": 3559,
      "Alpes": 3560,
      "terme": 3561,
      "Jesus": 3562,
      "Hermann": 3563,
      "##iz": 3564,
      "Dance": 3565,
      "bad": 3566,
      "test": 3567,
      "pag": 3568,
      "107": 3569,
      "108": 3570,
      "Hamilton": 3571,
      "##oli": 3572,
      "size": 3573,
      "zou": 3574,
      "##gio": 3575,
      "superior": 3576,
      "cargo": 3577,
      "mise": 3578,
      "ISO": 3579,
      "##well": 3580,
      "pedig": 3581,
      "cinq": 3582,
      "ante": 3583,
      "negli": 3584,
      "##bau": 3585,
      "permet": 3586,
      "featured": 3587,
      "killed": 3588,
      "Ann": 3589,
      "##ions": 3590,
      "Stand": 3591,
      "sue": 3592,
      "Billy": 3593,
      "dir": 3594,
      "Mann": 3595,
      "Wild": 3596,
      "semi": 3597,
      "volume": 3598,
      "cara": 3599,
      "##smo": 3600,
      "usually": 3601,
      "countries": 3602,
      "##rik": 3603,
      "##ê": 3604,
      "throughout": 3605,
      "1845": 3606,
      "##tico": 3607,
      "bod": 3608,
      "Back": 3609,
      "##wi": 3610,
      "Ferdinand": 3611,
      "desa": 3612,
      "père": 3613,
      "Health": 3614,
      "##lde": 3615,
      "360": 3616,
      "moderne": 3617,
      "##oon": 3618,
      "Vietnam": 3619,
      "verso": 3620,
      "reported": 3621,
      "étant": 3622,
      "Hugo": 3623,
      "More": 3624,
      "1842": 3625,
      "##ec": 3626,
      "Nelson": 3627,
      "##zio": 3628,
      "Technology": 3629,
      "immer": 3630,
      "Puerto": 3631,
      "trouve": 3632,
      "##uit": 3633,
      "finished": 3634,
      "Del": 3635,
      "page": 3636,
      "##yan": 3637,
      "Philadelphia": 3638,
      "remained": 3639,
      "##car": 3640,
      "Congress": 3641,
      "Edition": 3642,
      "##eo": 3643,
      "oro": 3644,
      "Field": 3645,
      "surface": 3646,
      "Down": 3647,
      "membres": 3648,
      "cum": 3649,
      "schools": 3650,
      "Barbara": 3651,
      "Fire": 3652,
      "##ades": 3653,
      "240": 3654,
      "leading": 3655,
      "players": 3656,
      "##ture": 3657,
      "transport": 3658,
      "Hospital": 3659,
      "Britain": 3660,
      "##ków": 3661,
      "above": 3662,
      "##gel": 3663,
      "Not": 3664,
      "software": 3665,
      "Studio": 3666,
      "1844": 3667,
      "Stuttgart": 3668,
      "Sul": 3669,
      "##dem": 3670,
      "époque": 3671,
      "ABC": 3672,
      "sites": 3673,
      "DJ": 3674,
      "Nederland": 3675,
      "Alice": 3676,
      "close": 3677,
      "cover": 3678,
      "##ones": 3679,
      "##ap": 3680,
      "Dave": 3681,
      "##xe": 3682,
      "membre": 3683,
      "individual": 3684,
      "##hed": 3685,
      "college": 3686,
      "106": 3687,
      "Moon": 3688,
      "##ša": 3689,
      "gas": 3690,
      "près": 3691,
      "##uan": 3692,
      "##adas": 3693,
      "Sri": 3694,
      "Andrea": 3695,
      "##sy": 3696,
      "either": 3697,
      "##tud": 3698,
      "contract": 3699,
      "##jem": 3700,
      "##ule": 3701,
      "##sky": 3702,
      "week": 3703,
      "##shi": 3704,
      "##mal": 3705,
      "Free": 3706,
      "Nick": 3707,
      "Directory": 3708,
      "112": 3709,
      "##ony": 3710,
      "begin": 3711,
      "président": 3712,
      "love": 3713,
      "Near": 3714,
      "SAD": 3715,
      "##ρ": 3716,
      "Jazz": 3717,
      "1814": 3718,
      "Spain": 3719,
      "awarded": 3720,
      "dernier": 3721,
      "elles": 3722,
      "aircraft": 3723,
      "1837": 3724,
      "drie": 3725,
      "Jorge": 3726,
      "Vincent": 3727,
      "##tia": 3728,
      "bay": 3729,
      "Val": 3730,
      "Dark": 3731,
      "128": 3732,
      "able": 3733,
      "Lawrence": 3734,
      "space": 3735,
      "##ech": 3736,
      "chez": 3737,
      "Dat": 3738,
      "##ult": 3739,
      "Rudolf": 3740,
      "simple": 3741,
      "##stein": 3742,
      "még": 3743,
      "rôle": 3744,
      "##nden": 3745,
      "termine": 3746,
      "##bes": 3747,
      "##ô": 3748,
      "##sed": 3749,
      "##fall": 3750,
      "1839": 3751,
      "eight": 3752,
      "Theater": 3753,
      "Jimmy": 3754,
      "Zu": 3755,
      "##wski": 3756,
      "Et": 3757,
      "Adolf": 3758,
      "département": 3759,
      "##rse": 3760,
      "Anton": 3761,
      "situé": 3762,
      "Med": 3763,
      "involved": 3764,
      "##uto": 3765,
      "Hun": 3766,
      "##ał": 3767,
      "bili": 3768,
      "##lah": 3769,
      "1834": 3770,
      "niveau": 3771,
      "About": 3772,
      "##int": 3773,
      "Single": 3774,
      "Sherman": 3775,
      "hab": 3776,
      "primordial": 3777,
      "1835": 3778,
      "##ches": 3779,
      "Code": 3780,
      "##mon": 3781,
      "Missouri": 3782,
      "Nobel": 3783,
      "Baden": 3784,
      "added": 3785,
      "bin": 3786,
      "federal": 3787,
      "##rta": 3788,
      "109": 3789,
      "##ving": 3790,
      "least": 3791,
      "##rk": 3792,
      "Township": 3793,
      "Charlie": 3794,
      "pol": 3795,
      "Minnesota": 3796,
      "##dur": 3797,
      "Eastern": 3798,
      "##ort": 3799,
      "##itat": 3800,
      "states": 3801,
      "##nh": 3802,
      "persona": 3803,
      "Khan": 3804,
      "##oja": 3805,
      "eventually": 3806,
      "gang": 3807,
      "ek": 3808,
      "Come": 3809,
      "Barat": 3810,
      "fram": 3811,
      "attack": 3812,
      "##å": 3813,
      "formation": 3814,
      "1838": 3815,
      "Dead": 3816,
      "##pes": 3817,
      "PC": 3818,
      "##sing": 3819,
      "Guy": 3820,
      "135": 3821,
      "Jordan": 3822,
      "##bor": 3823,
      "##nio": 3824,
      "Era": 3825,
      "##led": 3826,
      "Ana": 3827,
      "##ors": 3828,
      "##gue": 3829,
      "related": 3830,
      "##gos": 3831,
      "Blues": 3832,
      "metres": 3833,
      "Jonathan": 3834,
      "Later": 3835,
      "##film": 3836,
      "##ères": 3837,
      "##ming": 3838,
      "##tle": 3839,
      "Porto": 3840,
      "##ová": 3841,
      "artist": 3842,
      "Ten": 3843,
      "Junior": 3844,
      "##dre": 3845,
      "Pape": 3846,
      "##ab": 3847,
      "##nice": 3848,
      "Mas": 3849,
      "Conference": 3850,
      "##èt": 3851,
      "plant": 3852,
      "Boys": 3853,
      "##kov": 3854,
      "1843": 3855,
      "Donald": 3856,
      "##kas": 3857,
      "##nna": 3858,
      "Nicolas": 3859,
      "##rice": 3860,
      "gibi": 3861,
      "regional": 3862,
      "degree": 3863,
      "##ár": 3864,
      "##ance": 3865,
      "Ryan": 3866,
      "student": 3867,
      "##bin": 3868,
      "replaced": 3869,
      "cases": 3870,
      "Management": 3871,
      "##eti": 3872,
      "provided": 3873,
      "Jacob": 3874,
      "##nder": 3875,
      "1831": 3876,
      "rue": 3877,
      "existe": 3878,
      "unit": 3879,
      "wis": 3880,
      "Amt": 3881,
      "Course": 3882,
      "Río": 3883,
      "Duke": 3884,
      "##iske": 3885,
      "centrale": 3886,
      "sta": 3887,
      "##iche": 3888,
      "##sal": 3889,
      "medal": 3890,
      "eau": 3891,
      "winning": 3892,
      "vice": 3893,
      "Tod": 3894,
      "Sarah": 3895,
      "Asteroid": 3896,
      "sera": 3897,
      "casi": 3898,
      "##aire": 3899,
      "Channel": 3900,
      "Ele": 3901,
      "Magyar": 3902,
      "étaient": 3903,
      "Indiana": 3904,
      "self": 3905,
      "hos": 3906,
      "Terra": 3907,
      "##cho": 3908,
      "Ian": 3909,
      "independent": 3910,
      "Tropical": 3911,
      "goal": 3912,
      "##pp": 3913,
      "##ized": 3914,
      "1812": 3915,
      "1836": 3916,
      "editor": 3917,
      "##rit": 3918,
      "##ül": 3919,
      "ul": 3920,
      "##ow": 3921,
      "1644": 3922,
      "producer": 3923,
      "Levy": 3924,
      "nature": 3925,
      "presso": 3926,
      "certain": 3927,
      "competition": 3928,
      "1841": 3929,
      "star": 3930,
      "normal": 3931,
      "117": 3932,
      "##dorf": 3933,
      "Stadium": 3934,
      "planta": 3935,
      "kommune": 3936,
      "anu": 3937,
      "Franco": 3938,
      "##kim": 3939,
      "Winter": 3940,
      "##var": 3941,
      "##ovi": 3942,
      "Museo": 3943,
      "##ić": 3944,
      "Bruno": 3945,
      "190": 3946,
      "deuxième": 3947,
      "##over": 3948,
      "Harris": 3949,
      "studies": 3950,
      "Rosa": 3951,
      "grote": 3952,
      "western": 3953,
      "compte": 3954,
      "##vad": 3955,
      "Com": 3956,
      "too": 3957,
      "Keith": 3958,
      "Ross": 3959,
      "rights": 3960,
      "Greenwood": 3961,
      "##lat": 3962,
      "León": 3963,
      "camp": 3964,
      "René": 3965,
      "clubs": 3966,
      "1600": 3967,
      "future": 3968,
      "seme": 3969,
      "450": 3970,
      "ver": 3971,
      "ensuite": 3972,
      "##az": 3973,
      "Gesellschaft": 3974,
      "##ania": 3975,
      "Chief": 3976,
      "Kansas": 3977,
      "fort": 3978,
      "Atlantic": 3979,
      "##py": 3980,
      "previous": 3981,
      "Harvard": 3982,
      "little": 3983,
      "##uma": 3984,
      "Railway": 3985,
      "mao": 3986,
      "1832": 3987,
      "Girls": 3988,
      "Apollo": 3989,
      "##hr": 3990,
      "1833": 3991,
      "female": 3992,
      "Pays": 3993,
      "##ská": 3994,
      "Brazil": 3995,
      "systems": 3996,
      "##elt": 3997,
      "##logia": 3998,
      "Four": 3999,
      "1820": 4000,
      "End": 4001,
      "ancien": 4002,
      "##ario": 4003,
      "Germania": 4004,
      "Frau": 4005,
      "MTV": 4006,
      "Third": 4007,
      "Jason": 4008,
      "Haus": 4009,
      "Timur": 4010,
      "Teatro": 4011,
      "3rd": 4012,
      "Andy": 4013,
      "uk": 4014,
      "##ute": 4015,
      "Benjamin": 4016,
      "gmina": 4017,
      "Renaissance": 4018,
      "##bio": 4019,
      "##llen": 4020,
      "##eno": 4021,
      "##ef": 4022,
      "##sus": 4023,
      "##pis": 4024,
      "##wo": 4025,
      "wel": 4026,
      "Head": 4027,
      "##eu": 4028,
      "##ires": 4029,
      "Opera": 4030,
      "Salvador": 4031,
      "Ils": 4032,
      "Machine": 4033,
      "Segunda": 4034,
      "environ": 4035,
      "##ře": 4036,
      "##ί": 4037,
      "Herbert": 4038,
      "rather": 4039,
      "Baker": 4040,
      "pay": 4041,
      "És": 4042,
      "provide": 4043,
      "Islands": 4044,
      "port": 4045,
      "Oliver": 4046,
      "scène": 4047,
      "publication": 4048,
      "whose": 4049,
      "nombreux": 4050,
      "##ats": 4051,
      "Leo": 4052,
      "tien": 4053,
      "Fred": 4054,
      "230": 4055,
      "##ym": 4056,
      "pdf": 4057,
      "1793": 4058,
      "##ase": 4059,
      "##ped": 4060,
      "Sierra": 4061,
      "Asian": 4062,
      "Scotland": 4063,
      "night": 4064,
      "placed": 4065,
      "##och": 4066,
      "canal": 4067,
      "ground": 4068,
      "dues": 4069,
      "Mac": 4070,
      "fourth": 4071,
      "toute": 4072,
      "digital": 4073,
      "Erik": 4074,
      "##ća": 4075,
      "Form": 4076,
      "Graham": 4077,
      "minister": 4078,
      "direct": 4079,
      "manager": 4080,
      "ayant": 4081,
      "Kreis": 4082,
      "don": 4083,
      "genom": 4084,
      "ag": 4085,
      "Lincoln": 4086,
      "Sein": 4087,
      "##aux": 4088,
      "jour": 4089,
      "Collins": 4090,
      "Adams": 4091,
      "bass": 4092,
      "bilan": 4093,
      "forte": 4094,
      "code": 4095,
      "river": 4096,
      "123": 4097,
      "déi": 4098,
      "Matt": 4099,
      "But": 4100,
      "114": 4101,
      "Wright": 4102,
      "##ics": 4103,
      "label": 4104,
      "Songs": 4105,
      "Hy": 4106,
      "##ward": 4107,
      "113": 4108,
      "ami": 4109,
      "##dio": 4110,
      "##weg": 4111,
      "##rii": 4112,
      "tog": 4113,
      "success": 4114,
      "##ța": 4115,
      "health": 4116,
      "owned": 4117,
      "Body": 4118,
      "Prize": 4119,
      "##umi": 4120,
      "##ned": 4121,
      "##xo": 4122,
      "##gal": 4123,
      "carrière": 4124,
      "HMS": 4125,
      "review": 4126,
      "mission": 4127,
      "Tag": 4128,
      "author": 4129,
      "introduced": 4130,
      "ever": 4131,
      "##oma": 4132,
      "1821": 4133,
      "ran": 4134,
      "arts": 4135,
      "##wer": 4136,
      "750": 4137,
      "##ük": 4138,
      "##hl": 4139,
      "corpo": 4140,
      "Fu": 4141,
      "##ento": 4142,
      "erst": 4143,
      "##logie": 4144,
      "Castle": 4145,
      "stated": 4146,
      "porte": 4147,
      "seis": 4148,
      "Baby": 4149,
      "##lles": 4150,
      "Champion": 4151,
      "mois": 4152,
      "Partido": 4153,
      "Justice": 4154,
      "reached": 4155,
      "orbit": 4156,
      "sedan": 4157,
      "##ides": 4158,
      "Nazionale": 4159,
      "dr": 4160,
      "116": 4161,
      "Libraries": 4162,
      "##lte": 4163,
      "Arizona": 4164,
      "Another": 4165,
      "bisa": 4166,
      "Welt": 4167,
      "Colorado": 4168,
      "saw": 4169,
      "##gy": 4170,
      "Just": 4171,
      "Jewish": 4172,
      "División": 4173,
      "Now": 4174,
      "almost": 4175,
      "movement": 4176,
      "Regiment": 4177,
      "espèce": 4178,
      "210": 4179,
      "Frederick": 4180,
      "Morgan": 4181,
      "##ets": 4182,
      "legal": 4183,
      "##bal": 4184,
      "Gustav": 4185,
      "Let": 4186,
      "##ır": 4187,
      "##isten": 4188,
      "management": 4189,
      "Sainte": 4190,
      "petit": 4191,
      "behind": 4192,
      "southern": 4193,
      "Musik": 4194,
      "Today": 4195,
      "Morris": 4196,
      "units": 4197,
      "##kog": 4198,
      "Revolution": 4199,
      "basis": 4200,
      "Liste": 4201,
      "network": 4202,
      "Historical": 4203,
      "Robin": 4204,
      "##dus": 4205,
      "##igt": 4206,
      "Charlotte": 4207,
      "Studios": 4208,
      "Selected": 4209,
      "UNESCO": 4210,
      "##λ": 4211,
      "Pablo": 4212,
      "Bayern": 4213,
      "##dig": 4214,
      "Guinea": 4215,
      "Object": 4216,
      "costa": 4217,
      "Apple": 4218,
      "complex": 4219,
      "Jeff": 4220,
      "Santos": 4221,
      "##inin": 4222,
      "##ður": 4223,
      "Cuba": 4224,
      "Gallery": 4225,
      "##sme": 4226,
      "##rde": 4227,
      "quasi": 4228,
      "scored": 4229,
      "1200": 4230,
      "Express": 4231,
      "cel": 4232,
      "Straße": 4233,
      "##und": 4234,
      "Many": 4235,
      "epi": 4236,
      "Corps": 4237,
      "##ż": 4238,
      "Wang": 4239,
      "##hausen": 4240,
      "Daily": 4241,
      "mat": 4242,
      "##iai": 4243,
      "König": 4244,
      "CIA": 4245,
      "Edwards": 4246,
      "Championships": 4247,
      "Christmas": 4248,
      "Contemporary": 4249,
      "Luigi": 4250,
      "decided": 4251,
      "##sz": 4252,
      "##ament": 4253,
      "3D": 4254,
      "1825": 4255,
      "length": 4256,
      "pak": 4257,
      "##ities": 4258,
      "hui": 4259,
      "municipality": 4260,
      "Mars": 4261,
      "parents": 4262,
      "feet": 4263,
      "##pin": 4264,
      "période": 4265,
      "influence": 4266,
      "tale": 4267,
      "Remix": 4268,
      "ship": 4269,
      "souvent": 4270,
      "market": 4271,
      "Fritz": 4272,
      "conditions": 4273,
      "Dream": 4274,
      "1700": 4275,
      "campaign": 4276,
      "Raymond": 4277,
      "brought": 4278,
      "successful": 4279,
      "commercial": 4280,
      "##wane": 4281,
      "rest": 4282,
      "jeu": 4283,
      "northern": 4284,
      "Andreas": 4285,
      "Paolo": 4286,
      "ob": 4287,
      "Ces": 4288,
      "Survey": 4289,
      "Medal": 4290,
      "custodian": 4291,
      "João": 4292,
      "##sar": 4293,
      "island": 4294,
      "##lang": 4295,
      "Vilnius": 4296,
      "doit": 4297,
      "Arab": 4298,
      "need": 4299,
      "produce": 4300,
      "##fica": 4301,
      "Stati": 4302,
      "soll": 4303,
      "Doctor": 4304,
      "reste": 4305,
      "principales": 4306,
      "mans": 4307,
      "county": 4308,
      "approximately": 4309,
      "Age": 4310,
      "##ča": 4311,
      "tournament": 4312,
      "##ord": 4313,
      "##aa": 4314,
      "1829": 4315,
      "Stefan": 4316,
      "##tiva": 4317,
      "##sie": 4318,
      "ole": 4319,
      "kW": 4320,
      "armée": 4321,
      "##stan": 4322,
      "##any": 4323,
      "male": 4324,
      "sector": 4325,
      "121": 4326,
      "AS": 4327,
      "##ß": 4328,
      "##kon": 4329,
      "industry": 4330,
      "Bridge": 4331,
      "instead": 4332,
      "##gne": 4333,
      "Papa": 4334,
      "stati": 4335,
      "Sound": 4336,
      "Par": 4337,
      "5000": 4338,
      "##ip": 4339,
      "Cultural": 4340,
      "turno": 4341,
      "Champions": 4342,
      "##dis": 4343,
      "THE": 4344,
      "1828": 4345,
      "our": 4346,
      "Captain": 4347,
      "001": 4348,
      "Ett": 4349,
      "Place": 4350,
      "1806": 4351,
      "##kal": 4352,
      "elements": 4353,
      "results": 4354,
      "##sion": 4355,
      "required": 4356,
      "##kus": 4357,
      "Orchestra": 4358,
      "elevation": 4359,
      "Memorial": 4360,
      "Pietro": 4361,
      "previously": 4362,
      "##mat": 4363,
      "##wyd": 4364,
      "##cida": 4365,
      "122": 4366,
      "américain": 4367,
      "ua": 4368,
      "##pu": 4369,
      "especially": 4370,
      "Stewart": 4371,
      "##gus": 4372,
      "Coast": 4373,
      "##jar": 4374,
      "##cer": 4375,
      "rapport": 4376,
      "Laura": 4377,
      "##bil": 4378,
      "##out": 4379,
      "118": 4380,
      "##non": 4381,
      "##teur": 4382,
      "LP": 4383,
      "##mm": 4384,
      "Euro": 4385,
      "figure": 4386,
      "Sultan": 4387,
      "##ction": 4388,
      "traditional": 4389,
      "Gray": 4390,
      "feat": 4391,
      "Get": 4392,
      "below": 4393,
      "Coupe": 4394,
      "Their": 4395,
      "internationale": 4396,
      "report": 4397,
      "jazz": 4398,
      "outside": 4399,
      "writer": 4400,
      "##endo": 4401,
      "Pop": 4402,
      "Angel": 4403,
      "Steven": 4404,
      "basa": 4405,
      "Muhammad": 4406,
      "means": 4407,
      "Bishop": 4408,
      "##èrent": 4409,
      "Wrestling": 4410,
      "##esi": 4411,
      "organization": 4412,
      "listed": 4413,
      "itself": 4414,
      "originale": 4415,
      "Garden": 4416,
      "127": 4417,
      "corps": 4418,
      "##nju": 4419,
      "honor": 4420,
      "Ez": 4421,
      "lived": 4422,
      "Grant": 4423,
      "Ao": 4424,
      "##nel": 4425,
      "##ib": 4426,
      "sometimes": 4427,
      "##ät": 4428,
      "##ical": 4429,
      "##ande": 4430,
      "Société": 4431,
      "Miami": 4432,
      "primary": 4433,
      "gouvernement": 4434,
      "Woman": 4435,
      "writing": 4436,
      "Kr": 4437,
      "##eli": 4438,
      "interest": 4439,
      "musique": 4440,
      "Bull": 4441,
      "##lie": 4442,
      "aki": 4443,
      "##nal": 4444,
      "afin": 4445,
      "YouTube": 4446,
      "Forest": 4447,
      "Berg": 4448,
      "##ione": 4449,
      "##ró": 4450,
      "rata": 4451,
      "Rafael": 4452,
      "Official": 4453,
      "Route": 4454,
      "liste": 4455,
      "bit": 4456,
      "Jerry": 4457,
      "seat": 4458,
      "champion": 4459,
      "Dutch": 4460,
      "Dom": 4461,
      "changed": 4462,
      "attended": 4463,
      "fand": 4464,
      "##ži": 4465,
      "Water": 4466,
      "##pel": 4467,
      "score": 4468,
      "Marshall": 4469,
      "figura": 4470,
      "obec": 4471,
      "Play": 4472,
      "SM": 4473,
      "##mba": 4474,
      "Collection": 4475,
      "donne": 4476,
      "Silva": 4477,
      "##inde": 4478,
      "Catalunya": 4479,
      "plays": 4480,
      "award": 4481,
      "López": 4482,
      "Design": 4483,
      "Arnold": 4484,
      "continue": 4485,
      "Haute": 4486,
      "significa": 4487,
      "minor": 4488,
      "Sons": 4489,
      "femme": 4490,
      "Jon": 4491,
      "##yer": 4492,
      "EU": 4493,
      "##aja": 4494,
      "##ude": 4495,
      "jadi": 4496,
      "##nk": 4497,
      "anglais": 4498,
      "Mix": 4499,
      "train": 4500,
      "Airlines": 4501,
      "##czy": 4502,
      "buildings": 4503,
      "enn": 4504,
      "##dat": 4505,
      "Pas": 4506,
      "past": 4507,
      "Gli": 4508,
      "Melbourne": 4509,
      "libre": 4510,
      "##ologie": 4511,
      "str": 4512,
      "##jer": 4513,
      "1802": 4514,
      "##sos": 4515,
      "finales": 4516,
      "tuli": 4517,
      "Dame": 4518,
      "bland": 4519,
      "épisode": 4520,
      "Primera": 4521,
      "126": 4522,
      "Area": 4523,
      "Kennedy": 4524,
      "theory": 4525,
      "##eurs": 4526,
      "museum": 4527,
      "toujours": 4528,
      "##nici": 4529,
      "1824": 4530,
      "dog": 4531,
      "lingua": 4532,
      "##pia": 4533,
      "González": 4534,
      "conquest": 4535,
      "senior": 4536,
      "stal": 4537,
      "featuring": 4538,
      "Geiger": 4539,
      "issues": 4540,
      "aller": 4541,
      "Warner": 4542,
      "Springer": 4543,
      "##chten": 4544,
      "280": 4545,
      "find": 4546,
      "Standard": 4547,
      "145": 4548,
      "soon": 4549,
      "##ška": 4550,
      "mètres": 4551,
      "Sommer": 4552,
      "Chart": 4553,
      "complete": 4554,
      "Poland": 4555,
      "chaque": 4556,
      "Avenue": 4557,
      "##hip": 4558,
      "1789": 4559,
      "château": 4560,
      "##ein": 4561,
      "1813": 4562,
      "##erne": 4563,
      "paper": 4564,
      "Stars": 4565,
      "Academia": 4566,
      "nou": 4567,
      "Köppen": 4568,
      "##lly": 4569,
      "view": 4570,
      "##ual": 4571,
      "Wisconsin": 4572,
      "1826": 4573,
      "significant": 4574,
      "runs": 4575,
      "##town": 4576,
      "jours": 4577,
      "Murray": 4578,
      "Assembly": 4579,
      "Monitoring": 4580,
      "money": 4581,
      "sport": 4582,
      "Antoine": 4583,
      "##ém": 4584,
      "##gon": 4585,
      "##worth": 4586,
      "bronze": 4587,
      "##zet": 4588,
      "1818": 4589,
      "AG": 4590,
      "board": 4591,
      "bang": 4592,
      "##ndi": 4593,
      "Families": 4594,
      "administration": 4595,
      "##tua": 4596,
      "Lucas": 4597,
      "124": 4598,
      "260": 4599,
      "hommes": 4600,
      "Arena": 4601,
      "Olympic": 4602,
      "porta": 4603,
      "mes": 4604,
      "singer": 4605,
      "Larva": 4606,
      "119": 4607,
      "##our": 4608,
      "tracks": 4609,
      "Etter": 4610,
      "beginning": 4611,
      "Wolf": 4612,
      "opening": 4613,
      "army": 4614,
      "names": 4615,
      "Lyon": 4616,
      "higher": 4617,
      "problema": 4618,
      "Bij": 4619,
      "summer": 4620,
      "Alle": 4621,
      "Peel": 4622,
      "Lost": 4623,
      "##ã": 4624,
      "Franklin": 4625,
      "##log": 4626,
      "Alexandre": 4627,
      "##rato": 4628,
      "arrondissement": 4629,
      "Margaret": 4630,
      "Canal": 4631,
      "##rata": 4632,
      "Comets": 4633,
      "running": 4634,
      "Born": 4635,
      "155": 4636,
      "##borg": 4637,
      "Norden": 4638,
      "ji": 4639,
      "Fame": 4640,
      "fall": 4641,
      "##bili": 4642,
      "Carter": 4643,
      "child": 4644,
      "Police": 4645,
      "Kinder": 4646,
      "Classification": 4647,
      "defeated": 4648,
      "Sony": 4649,
      "association": 4650,
      "##ular": 4651,
      "wide": 4652,
      "auteur": 4653,
      "##rios": 4654,
      "Municipal": 4655,
      "according": 4656,
      "##bert": 4657,
      "##ain": 4658,
      "Mal": 4659,
      "problem": 4660,
      "WWE": 4661,
      "Mitte": 4662,
      "generally": 4663,
      "Sen": 4664,
      "Köln": 4665,
      "taking": 4666,
      "##eva": 4667,
      "##time": 4668,
      "Mei": 4669,
      "##ema": 4670,
      "give": 4671,
      "strong": 4672,
      "valor": 4673,
      "towards": 4674,
      "##ology": 4675,
      "eru": 4676,
      "175": 4677,
      "##side": 4678,
      "whom": 4679,
      "##ène": 4680,
      "associated": 4681,
      "##esa": 4682,
      "##eko": 4683,
      "##rek": 4684,
      "##pat": 4685,
      "Updated": 4686,
      "Barry": 4687,
      "bar": 4688,
      "millions": 4689,
      "Vladimir": 4690,
      "gold": 4691,
      "##yen": 4692,
      "AC": 4693,
      "1790": 4694,
      "highest": 4695,
      "SC": 4696,
      "industrial": 4697,
      "hospital": 4698,
      "amor": 4699,
      "Phil": 4700,
      "NHL": 4701,
      "intentions": 4702,
      "Julie": 4703,
      "Peru": 4704,
      "combat": 4705,
      "##nga": 4706,
      "allowed": 4707,
      "charge": 4708,
      "lower": 4709,
      "eli": 4710,
      "scene": 4711,
      "Matthew": 4712,
      "image": 4713,
      "Campbell": 4714,
      "goals": 4715,
      "##ales": 4716,
      "##rdi": 4717,
      "Helsinki": 4718,
      "##nge": 4719,
      "Kurt": 4720,
      "##mt": 4721,
      "practice": 4722,
      "plans": 4723,
      "USS": 4724,
      "sports": 4725,
      "Dal": 4726,
      "##ists": 4727,
      "##cat": 4728,
      "outcomes": 4729,
      "location": 4730,
      "##oda": 4731,
      "unique": 4732,
      "effet": 4733,
      "Dies": 4734,
      "##bat": 4735,
      "prix": 4736,
      "##eth": 4737,
      "##ost": 4738,
      "engine": 4739,
      "income": 4740,
      "##ím": 4741,
      "Warren": 4742,
      "Here": 4743,
      "Rhône": 4744,
      "Cover": 4745,
      "##sé": 4746,
      "auto": 4747,
      "matches": 4748,
      "ibn": 4749,
      "Page": 4750,
      "Children": 4751,
      "totale": 4752,
      "railway": 4753,
      "Holland": 4754,
      "Brothers": 4755,
      "esto": 4756,
      "pred": 4757,
      "##ndan": 4758,
      "contains": 4759,
      "##inger": 4760,
      "##ller": 4761,
      "Aus": 4762,
      "1801": 4763,
      "heavy": 4764,
      "##mé": 4765,
      "woman": 4766,
      "food": 4767,
      "270": 4768,
      "##ac": 4769,
      "##zed": 4770,
      "##cı": 4771,
      "access": 4772,
      "Wood": 4773,
      "ATP": 4774,
      "Following": 4775,
      "1816": 4776,
      "##cies": 4777,
      "better": 4778,
      "##gé": 4779,
      "##tir": 4780,
      "global": 4781,
      "Abu": 4782,
      "##mine": 4783,
      "1822": 4784,
      "##gd": 4785,
      "129": 4786,
      "PlayStation": 4787,
      "##els": 4788,
      "Turner": 4789,
      "##mek": 4790,
      "rate": 4791,
      "##rant": 4792,
      "resto": 4793,
      "nous": 4794,
      "toutes": 4795,
      "operations": 4796,
      "##oje": 4797,
      "##iera": 4798,
      "Medical": 4799,
      "##ures": 4800,
      "##ador": 4801,
      "##yle": 4802,
      "hari": 4803,
      "131": 4804,
      "Madonna": 4805,
      "enfants": 4806,
      "##istes": 4807,
      "Liverpool": 4808,
      "movie": 4809,
      "rural": 4810,
      "property": 4811,
      "132": 4812,
      "##ža": 4813,
      "##har": 4814,
      "Amor": 4815,
      "##cis": 4816,
      "144": 4817,
      "##cas": 4818,
      "OS": 4819,
      "Metal": 4820,
      "administrative": 4821,
      "Evans": 4822,
      "nommé": 4823,
      "##tter": 4824,
      "articles": 4825,
      "mode": 4826,
      "Iowa": 4827,
      "Plan": 4828,
      "##lands": 4829,
      "ended": 4830,
      "##iana": 4831,
      "Racing": 4832,
      "papa": 4833,
      "tok": 4834,
      "##ør": 4835,
      "Fernández": 4836,
      "closed": 4837,
      "##bt": 4838,
      "key": 4839,
      "1819": 4840,
      "ministre": 4841,
      "thus": 4842,
      "##etan": 4843,
      "coma": 4844,
      "##hal": 4845,
      "Denis": 4846,
      "Müller": 4847,
      "système": 4848,
      "cinema": 4849,
      "capita": 4850,
      "##ué": 4851,
      "##iska": 4852,
      "Our": 4853,
      "Astronomical": 4854,
      "études": 4855,
      "Roberts": 4856,
      "1827": 4857,
      "Marcel": 4858,
      "distribution": 4859,
      "metro": 4860,
      "Ar": 4861,
      "##mie": 4862,
      "##esta": 4863,
      "fille": 4864,
      "##itas": 4865,
      "##ence": 4866,
      "Tennessee": 4867,
      "oft": 4868,
      "##uda": 4869,
      "Statistics": 4870,
      "hold": 4871,
      "Durant": 4872,
      "Java": 4873,
      "droit": 4874,
      "##kai": 4875,
      "effect": 4876,
      "##tina": 4877,
      "Bis": 4878,
      "personnes": 4879,
      "##nier": 4880,
      "##vit": 4881,
      "œuvre": 4882,
      "Pictures": 4883,
      "distance": 4884,
      "##aka": 4885,
      "##τ": 4886,
      "##jet": 4887,
      "Television": 4888,
      "euro": 4889,
      "JR": 4890,
      "prend": 4891,
      "##bie": 4892,
      "134": 4893,
      "Wayne": 4894,
      "##nut": 4895,
      "sex": 4896,
      "Houston": 4897,
      "Dia": 4898,
      "Community": 4899,
      "Zur": 4900,
      "##kor": 4901,
      "Jay": 4902,
      "liga": 4903,
      "1758": 4904,
      "additional": 4905,
      "##ric": 4906,
      "spent": 4907,
      "##mp": 4908,
      "##vio": 4909,
      "noted": 4910,
      "loss": 4911,
      "move": 4912,
      "##logy": 4913,
      "situation": 4914,
      "société": 4915,
      "152": 4916,
      "stations": 4917,
      "##uh": 4918,
      "##rad": 4919,
      "jeune": 4920,
      "energy": 4921,
      "20th": 4922,
      "Louise": 4923,
      "##ciu": 4924,
      "1792": 4925,
      "Gilbert": 4926,
      "Early": 4927,
      "insect": 4928,
      "VM": 4929,
      "##essa": 4930,
      "Tras": 4931,
      "Fra": 4932,
      "fact": 4933,
      "##atan": 4934,
      "Cape": 4935,
      "ch": 4936,
      "##idos": 4937,
      "logo": 4938,
      "Dean": 4939,
      "##yd": 4940,
      "Pan": 4941,
      "Highway": 4942,
      "diverses": 4943,
      "133": 4944,
      "##back": 4945,
      "Lima": 4946,
      "retired": 4947,
      "##cks": 4948,
      "eastern": 4949,
      "##usa": 4950,
      "premiers": 4951,
      "##TV": 4952,
      "##eni": 4953,
      "famous": 4954,
      "##vić": 4955,
      "protein": 4956,
      "folk": 4957,
      "1817": 4958,
      "##aba": 4959,
      "Spring": 4960,
      "Julius": 4961,
      "parties": 4962,
      "Catalog": 4963,
      "Popular": 4964,
      "Stuart": 4965,
      "evidence": 4966,
      "peuvent": 4967,
      "Kirkwood": 4968,
      "Brookings": 4969,
      "Delhi": 4970,
      "Bau": 4971,
      "ingen": 4972,
      "Hockey": 4973,
      "cet": 4974,
      "##tig": 4975,
      "Only": 4976,
      "Eva": 4977,
      "Moscow": 4978,
      "today": 4979,
      "basen": 4980,
      "Allan": 4981,
      "##rade": 4982,
      "Marina": 4983,
      "older": 4984,
      "battle": 4985,
      "Castro": 4986,
      "##bahn": 4987,
      "computer": 4988,
      "##cki": 4989,
      "projet": 4990,
      "Broadway": 4991,
      "Zagreb": 4992,
      "Afghanistan": 4993,
      "##rede": 4994,
      "##rado": 4995,
      "Lorenzo": 4996,
      "##rium": 4997,
      "Parker": 4998,
      "Chr": 4999,
      "records": 5000,
      "sexe": 5001,
      "##lsen": 5002,
      "##ings": 5003,
      "Temple": 5004,
      "livre": 5005,
      "##wana": 5006,
      "ana": 5007,
      "Record": 5008,
      "136": 5009,
      "##gin": 5010,
      "Mrs": 5011,
      "##ged": 5012,
      "misma": 5013,
      "1808": 5014,
      "Yang": 5015,
      "represented": 5016,
      "kon": 5017,
      "1809": 5018,
      "create": 5019,
      "demi": 5020,
      "##kos": 5021,
      "Austin": 5022,
      "##nant": 5023,
      "##itz": 5024,
      "cost": 5025,
      "launched": 5026,
      "Blood": 5027,
      "cele": 5028,
      "Om": 5029,
      "fir": 5030,
      "companies": 5031,
      "terms": 5032,
      "sino": 5033,
      "CBS": 5034,
      "Earl": 5035,
      "Scottish": 5036,
      "animal": 5037,
      "##zat": 5038,
      "cosa": 5039,
      "Hills": 5040,
      "Cooper": 5041,
      "Deep": 5042,
      "Alto": 5043,
      "Valencia": 5044,
      "font": 5045,
      "##nger": 5046,
      "earlier": 5047,
      "Political": 5048,
      "trade": 5049,
      "Jana": 5050,
      "##ün": 5051,
      "biti": 5052,
      "voir": 5053,
      "320": 5054,
      "cast": 5055,
      "turn": 5056,
      "##iko": 5057,
      "vote": 5058,
      "staff": 5059,
      "lagu": 5060,
      "##enia": 5061,
      "internet": 5062,
      "cha": 5063,
      "137": 5064,
      "territoire": 5065,
      "Years": 5066,
      "Engineering": 5067,
      "Systems": 5068,
      "vain": 5069,
      "thought": 5070,
      "poste": 5071,
      "1795": 5072,
      "##ator": 5073,
      "nes": 5074,
      "Bach": 5075,
      "##ame": 5076,
      "mana": 5077,
      "##adi": 5078,
      "Federation": 5079,
      "albums": 5080,
      "agent": 5081,
      "militaire": 5082,
      "Zone": 5083,
      "##icos": 5084,
      "##lerin": 5085,
      "HD": 5086,
      "1803": 5087,
      "##icu": 5088,
      "##num": 5089,
      "Bot": 5090,
      "##vre": 5091,
      "##all": 5092,
      "Allemagne": 5093,
      "##ós": 5094,
      "##ont": 5095,
      "htm": 5096,
      "##atu": 5097,
      "##nski": 5098,
      "##vala": 5099,
      "changes": 5100,
      "notable": 5101,
      "Rodríguez": 5102,
      "Silver": 5103,
      "Guerre": 5104,
      "sources": 5105,
      "##ża": 5106,
      "estate": 5107,
      "##ney": 5108,
      "##ues": 5109,
      "153": 5110,
      "already": 5111,
      "recent": 5112,
      "##uer": 5113,
      "##eus": 5114,
      "##tak": 5115,
      "Elisabeth": 5116,
      "##nse": 5117,
      "##ías": 5118,
      "journal": 5119,
      "Arte": 5120,
      "##uti": 5121,
      "Christ": 5122,
      "decide": 5123,
      "Ernest": 5124,
      "feature": 5125,
      "maison": 5126,
      "Sau": 5127,
      "Economic": 5128,
      "numerous": 5129,
      "voi": 5130,
      "speed": 5131,
      "anh": 5132,
      "##IS": 5133,
      "##wego": 5134,
      "going": 5135,
      "##ür": 5136,
      "##pet": 5137,
      "dès": 5138,
      "appearance": 5139,
      "École": 5140,
      "985": 5141,
      "bas": 5142,
      "1823": 5143,
      "##cing": 5144,
      "##dag": 5145,
      "hard": 5146,
      "Fischer": 5147,
      "favor": 5148,
      "Martín": 5149,
      "analysis": 5150,
      "Eduardo": 5151,
      "tom": 5152,
      "takes": 5153,
      "aujourd": 5154,
      "##olo": 5155,
      "Kunst": 5156,
      "eigen": 5157,
      "##eria": 5158,
      "##ime": 5159,
      "##cker": 5160,
      "##til": 5161,
      "hotel": 5162,
      "Valle": 5163,
      "##rada": 5164,
      "types": 5165,
      "Days": 5166,
      "Ministry": 5167,
      "##ega": 5168,
      "Parliament": 5169,
      "characters": 5170,
      "Wars": 5171,
      "##hat": 5172,
      "##ize": 5173,
      "specific": 5174,
      "Olympics": 5175,
      "entire": 5176,
      "##dit": 5177,
      "192": 5178,
      "##ær": 5179,
      "value": 5180,
      "Vice": 5181,
      "fosse": 5182,
      "##bury": 5183,
      "Italien": 5184,
      "Class": 5185,
      "DDR": 5186,
      "##ër": 5187,
      "##tique": 5188,
      "Bulletin": 5189,
      "entered": 5190,
      "##stes": 5191,
      "concept": 5192,
      "Watson": 5193,
      "Nintendo": 5194,
      "decision": 5195,
      "##ering": 5196,
      "165": 5197,
      "##aje": 5198,
      "##oto": 5199,
      "##pie": 5200,
      "Front": 5201,
      "##rre": 5202,
      "édition": 5203,
      "annual": 5204,
      "Iron": 5205,
      "##lom": 5206,
      "tendo": 5207,
      "Türk": 5208,
      "Plus": 5209,
      "Jest": 5210,
      "places": 5211,
      "dire": 5212,
      "limited": 5213,
      "##ust": 5214,
      "Five": 5215,
      "##är": 5216,
      "mano": 5217,
      "##taa": 5218,
      "##hy": 5219,
      "sociale": 5220,
      "Democratic": 5221,
      "##Q": 5222,
      "##ulu": 5223,
      "sit": 5224,
      "activities": 5225,
      "prime": 5226,
      "officer": 5227,
      "Nicholas": 5228,
      "musica": 5229,
      "Linux": 5230,
      "##eve": 5231,
      "troisième": 5232,
      "1811": 5233,
      "increased": 5234,
      "operated": 5235,
      "sound": 5236,
      "villages": 5237,
      "##ră": 5238,
      "##zing": 5239,
      "letter": 5240,
      "Complete": 5241,
      "programs": 5242,
      "host": 5243,
      "Before": 5244,
      "Bir": 5245,
      "Parks": 5246,
      "##zin": 5247,
      "censo": 5248,
      "linea": 5249,
      "Julia": 5250,
      "##iri": 5251,
      "fet": 5252,
      "Kota": 5253,
      "##mica": 5254,
      "Spider": 5255,
      "##rm": 5256,
      "##end": 5257,
      "##lem": 5258,
      "Lloyd": 5259,
      "Conservation": 5260,
      "maps": 5261,
      "here": 5262,
      "Ken": 5263,
      "##aga": 5264,
      "travail": 5265,
      "##vor": 5266,
      "separate": 5267,
      "##rel": 5268,
      "Ari": 5269,
      "religious": 5270,
      "function": 5271,
      "bus": 5272,
      "Bobby": 5273,
      "Or": 5274,
      "Rolling": 5275,
      "BC": 5276,
      "Domenico": 5277,
      "Secretary": 5278,
      "Yu": 5279,
      "Negeri": 5280,
      "##mel": 5281,
      "Kent": 5282,
      "Reich": 5283,
      "Pérez": 5284,
      "née": 5285,
      "##af": 5286,
      "##isa": 5287,
      "##riu": 5288,
      "Unión": 5289,
      "Leon": 5290,
      "certains": 5291,
      "école": 5292,
      "Eddie": 5293,
      "Ne": 5294,
      "concert": 5295,
      "marine": 5296,
      "chief": 5297,
      "bank": 5298,
      "##ň": 5299,
      "Military": 5300,
      "##iel": 5301,
      "serve": 5302,
      "Hon": 5303,
      "##zel": 5304,
      "tête": 5305,
      "##rz": 5306,
      "medical": 5307,
      "Singapore": 5308,
      "149": 5309,
      "Motor": 5310,
      "Som": 5311,
      "présente": 5312,
      "anime": 5313,
      "Taiwan": 5314,
      "Raja": 5315,
      "bli": 5316,
      "championnat": 5317,
      "artists": 5318,
      "138": 5319,
      "Square": 5320,
      "##ration": 5321,
      "Napoli": 5322,
      "perché": 5323,
      "majority": 5324,
      "Mont": 5325,
      "Editors": 5326,
      "##cle": 5327,
      "Ball": 5328,
      "Language": 5329,
      "Desa": 5330,
      "Guatemala": 5331,
      "Site": 5332,
      "réalisé": 5333,
      "Rolle": 5334,
      "2019": 5335,
      "##lne": 5336,
      "Secret": 5337,
      "Position": 5338,
      "mille": 5339,
      "##zik": 5340,
      "##ill": 5341,
      "##lad": 5342,
      "148": 5343,
      "1804": 5344,
      "shot": 5345,
      "content": 5346,
      "143": 5347,
      "Bergen": 5348,
      "caused": 5349,
      "lines": 5350,
      "##ško": 5351,
      "Sankt": 5352,
      "##etta": 5353,
      "mae": 5354,
      "Wall": 5355,
      "element": 5356,
      "##bs": 5357,
      "Films": 5358,
      "##tant": 5359,
      "##sm": 5360,
      "Nouvelle": 5361,
      "Dragon": 5362,
      "always": 5363,
      "selected": 5364,
      "studied": 5365,
      "##pun": 5366,
      "room": 5367,
      "got": 5368,
      "Ve": 5369,
      "hours": 5370,
      "141": 5371,
      "##zes": 5372,
      "##wen": 5373,
      "Oklahoma": 5374,
      "##ço": 5375,
      "classes": 5376,
      "Ancient": 5377,
      "Lisa": 5378,
      "Ciudad": 5379,
      "Discovery": 5380,
      "##more": 5381,
      "GmbH": 5382,
      "1807": 5383,
      "Atlanta": 5384,
      "remains": 5385,
      "temple": 5386,
      "tim": 5387,
      "##ży": 5388,
      "##stadt": 5389,
      "Gruppen": 5390,
      "joueur": 5391,
      "latin": 5392,
      "programme": 5393,
      "île": 5394,
      "139": 5395,
      "sexual": 5396,
      "Thailand": 5397,
      "Schmidt": 5398,
      "Maryland": 5399,
      "us": 5400,
      "Kentucky": 5401,
      "Larry": 5402,
      "cross": 5403,
      "husband": 5404,
      "##ois": 5405,
      "forms": 5406,
      "##aal": 5407,
      "pie": 5408,
      "Imperial": 5409,
      "Parti": 5410,
      "ak": 5411,
      "idi": 5412,
      "gilt": 5413,
      "Sol": 5414,
      "plaza": 5415,
      "particularly": 5416,
      "##une": 5417,
      "1805": 5418,
      "##tem": 5419,
      "Lan": 5420,
      "Ai": 5421,
      "Italie": 5422,
      "Harold": 5423,
      "146": 5424,
      "##shire": 5425,
      "bem": 5426,
      "Kenya": 5427,
      "Neil": 5428,
      "organisation": 5429,
      "1794": 5430,
      "##bare": 5431,
      "##for": 5432,
      "scale": 5433,
      "comarca": 5434,
      "Histoire": 5435,
      "##eau": 5436,
      "République": 5437,
      "##lation": 5438,
      "Mayor": 5439,
      "monument": 5440,
      "Soul": 5441,
      "Oregon": 5442,
      "Detroit": 5443,
      "Met": 5444,
      "Sunday": 5445,
      "victory": 5446,
      "positive": 5447,
      "##mise": 5448,
      "Hannover": 5449,
      "Sebastian": 5450,
      "##ines": 5451,
      "Torino": 5452,
      "İstanbul": 5453,
      "##vou": 5454,
      "##erna": 5455,
      "##jä": 5456,
      "university": 5457,
      "##form": 5458,
      "Box": 5459,
      "Original": 5460,
      "technology": 5461,
      "Magic": 5462,
      "tv": 5463,
      "OL": 5464,
      "sola": 5465,
      "nombreuses": 5466,
      "Mississippi": 5467,
      "Urban": 5468,
      "mostly": 5469,
      "index": 5470,
      "##ally": 5471,
      "aid": 5472,
      "##rate": 5473,
      "Alfonso": 5474,
      "##zt": 5475,
      "##rem": 5476,
      "Australien": 5477,
      "leis": 5478,
      "##ridae": 5479,
      "##hon": 5480,
      "19th": 5481,
      "Profile": 5482,
      "Bird": 5483,
      "toe": 5484,
      "application": 5485,
      "Mi": 5486,
      "##bos": 5487,
      "##ball": 5488,
      "sister": 5489,
      "NHK": 5490,
      "relationship": 5491,
      "Roland": 5492,
      "147": 5493,
      "rugby": 5494,
      "Wagner": 5495,
      "meeting": 5496,
      "relations": 5497,
      "lot": 5498,
      "kur": 5499,
      "act": 5500,
      "moun": 5501,
      "cities": 5502,
      "altitude": 5503,
      "Harrison": 5504,
      "deve": 5505,
      "Knight": 5506,
      "Ligue": 5507,
      "Geographic": 5508,
      "185": 5509,
      "villa": 5510,
      "note": 5511,
      "multiple": 5512,
      "Alabama": 5513,
      "rus": 5514,
      "extra": 5515,
      "Polish": 5516,
      "historical": 5517,
      "orde": 5518,
      "uses": 5519,
      "Dennis": 5520,
      "recording": 5521,
      "becoming": 5522,
      "Ralph": 5523,
      "Ukraine": 5524,
      "referred": 5525,
      "142": 5526,
      "Shakespeare": 5527,
      "Publications": 5528,
      "notes": 5529,
      "Terry": 5530,
      "##hes": 5531,
      "Mitchell": 5532,
      "##fied": 5533,
      "hin": 5534,
      "society": 5535,
      "Jeho": 5536,
      "deal": 5537,
      "Unit": 5538,
      "##nem": 5539,
      "Prime": 5540,
      "##icus": 5541,
      "##ace": 5542,
      "Base": 5543,
      "Isabel": 5544,
      "Preis": 5545,
      "grâce": 5546,
      "Abraham": 5547,
      "##ug": 5548,
      "Mans": 5549,
      "##gn": 5550,
      "nine": 5551,
      "Henrik": 5552,
      "capitale": 5553,
      "directeur": 5554,
      "##iano": 5555,
      "Osten": 5556,
      "##stra": 5557,
      "##ization": 5558,
      "Laurent": 5559,
      "Zürich": 5560,
      "##ep": 5561,
      "##stu": 5562,
      "Dick": 5563,
      "shown": 5564,
      "supported": 5565,
      "Hier": 5566,
      "##die": 5567,
      "##jn": 5568,
      "##nsa": 5569,
      "Dallas": 5570,
      "passed": 5571,
      "Queensland": 5572,
      "versi": 5573,
      "Hughes": 5574,
      "##ére": 5575,
      "Camp": 5576,
      "Kaiser": 5577,
      "##kk": 5578,
      "comte": 5579,
      "presented": 5580,
      "native": 5581,
      "Din": 5582,
      "gare": 5583,
      "##cem": 5584,
      "canton": 5585,
      "subject": 5586,
      "##air": 5587,
      "succès": 5588,
      "##dea": 5589,
      "Hunter": 5590,
      "##lja": 5591,
      "tradition": 5592,
      "forced": 5593,
      "##qué": 5594,
      "dwa": 5595,
      "##cca": 5596,
      "Hi": 5597,
      "Nancy": 5598,
      "##rá": 5599,
      "Kina": 5600,
      "Novi": 5601,
      "operation": 5602,
      "Control": 5603,
      "##pas": 5604,
      "##oe": 5605,
      "hau": 5606,
      "Rick": 5607,
      "##sat": 5608,
      "##ís": 5609,
      "1798": 5610,
      "Schule": 5611,
      "friend": 5612,
      "pouvoir": 5613,
      "Tu": 5614,
      "Singles": 5615,
      "campus": 5616,
      "diri": 5617,
      "Selon": 5618,
      "Threatened": 5619,
      "stark": 5620,
      "##tone": 5621,
      "##bet": 5622,
      "kilometres": 5623,
      "##oz": 5624,
      "Tommy": 5625,
      "UA": 5626,
      "Serbia": 5627,
      "amo": 5628,
      "individuals": 5629,
      "##nic": 5630,
      "tenir": 5631,
      "##teen": 5632,
      "pr": 5633,
      "Sint": 5634,
      "##als": 5635,
      "##sas": 5636,
      "longer": 5637,
      "stat": 5638,
      "lea": 5639,
      "Boeing": 5640,
      "NFL": 5641,
      "middle": 5642,
      "themselves": 5643,
      "##ores": 5644,
      "Fe": 5645,
      "Perry": 5646,
      "##dh": 5647,
      "pat": 5648,
      "muss": 5649,
      "##ppen": 5650,
      "Independent": 5651,
      "Jules": 5652,
      "ancienne": 5653,
      "##hof": 5654,
      "Guardian": 5655,
      "engl": 5656,
      "question": 5657,
      "radius": 5658,
      "##oso": 5659,
      "##rou": 5660,
      "Ho": 5661,
      "diversi": 5662,
      "##yla": 5663,
      "Services": 5664,
      "Note": 5665,
      "203": 5666,
      "dus": 5667,
      "fill": 5668,
      "##eda": 5669,
      "provides": 5670,
      "##yt": 5671,
      "politico": 5672,
      "##tein": 5673,
      "##rung": 5674,
      "##rg": 5675,
      "serving": 5676,
      "pages": 5677,
      "nota": 5678,
      "Dorf": 5679,
      "##nz": 5680,
      "meno": 5681,
      "Ricardo": 5682,
      "##see": 5683,
      "##rka": 5684,
      "##çi": 5685,
      "côté": 5686,
      "##ên": 5687,
      "##èn": 5688,
      "Foreign": 5689,
      "Carmen": 5690,
      "programma": 5691,
      "##lot": 5692,
      "jer": 5693,
      "##ako": 5694,
      "appears": 5695,
      "##iers": 5696,
      "increase": 5697,
      "1799": 5698,
      "Re": 5699,
      "##10": 5700,
      "##por": 5701,
      "variety": 5702,
      "##isation": 5703,
      "##ól": 5704,
      "##osi": 5705,
      "Leonard": 5706,
      "episodi": 5707,
      "##tien": 5708,
      "##of": 5709,
      "##ole": 5710,
      "Prima": 5711,
      "151": 5712,
      "développement": 5713,
      "##yang": 5714,
      "##gua": 5715,
      "##mana": 5716,
      "Danny": 5717,
      "protection": 5718,
      "Rey": 5719,
      "politician": 5720,
      "furent": 5721,
      "##unda": 5722,
      "création": 5723,
      "##tate": 5724,
      "cô": 5725,
      "1791": 5726,
      "GMT": 5727,
      "sort": 5728,
      "Ron": 5729,
      "ultima": 5730,
      "##ët": 5731,
      "done": 5732,
      "mère": 5733,
      "Rob": 5734,
      "problems": 5735,
      "##head": 5736,
      "4th": 5737,
      "phase": 5738,
      "##wn": 5739,
      "virus": 5740,
      "##gie": 5741,
      "vest": 5742,
      "159": 5743,
      "Unter": 5744,
      "156": 5745,
      "dance": 5746,
      "##pur": 5747,
      "##trice": 5748,
      "Dei": 5749,
      "sik": 5750,
      "composed": 5751,
      "1400": 5752,
      "Muslim": 5753,
      "##lage": 5754,
      "larger": 5755,
      "168": 5756,
      "zones": 5757,
      "Egypt": 5758,
      "your": 5759,
      "Baron": 5760,
      "Alain": 5761,
      "seul": 5762,
      "Galicia": 5763,
      "Comics": 5764,
      "Never": 5765,
      "##zas": 5766,
      "fiction": 5767,
      "apie": 5768,
      "assim": 5769,
      "Units": 5770,
      "##anie": 5771,
      "Governor": 5772,
      "initially": 5773,
      "Schloss": 5774,
      "##ume": 5775,
      "Naval": 5776,
      "loi": 5777,
      "Felipe": 5778,
      "Limited": 5779,
      "Ecuador": 5780,
      "##dou": 5781,
      "154": 5782,
      "1797": 5783,
      "pois": 5784,
      "Frauen": 5785,
      "Notre": 5786,
      "##cco": 5787,
      "azt": 5788,
      "Dublin": 5789,
      "##uz": 5790,
      "Ocean": 5791,
      "Korean": 5792,
      "bo": 5793,
      "Natur": 5794,
      "sala": 5795,
      "stock": 5796,
      "sou": 5797,
      "stop": 5798,
      "raised": 5799,
      "singles": 5800,
      "##maa": 5801,
      "##chte": 5802,
      "##gem": 5803,
      "César": 5804,
      "##lara": 5805,
      "Mercedes": 5806,
      "cadre": 5807,
      "prison": 5808,
      "Uruguay": 5809,
      "Classic": 5810,
      "Emma": 5811,
      "Singh": 5812,
      "Orange": 5813,
      "##stad": 5814,
      "makes": 5815,
      "330": 5816,
      "Ye": 5817,
      "religion": 5818,
      "EM": 5819,
      "financial": 5820,
      "##lum": 5821,
      "##xi": 5822,
      "call": 5823,
      "rond": 5824,
      "##has": 5825,
      "##bank": 5826,
      "##off": 5827,
      "fem": 5828,
      "Ferrari": 5829,
      "Krieg": 5830,
      "Alaska": 5831,
      "##iet": 5832,
      "Vienna": 5833,
      "##uch": 5834,
      "gift": 5835,
      "Also": 5836,
      "Jerusalem": 5837,
      "laquelle": 5838,
      "##zada": 5839,
      "Flora": 5840,
      "##jana": 5841,
      "Maine": 5842,
      "Six": 5843,
      "existence": 5844,
      "Graf": 5845,
      "pilot": 5846,
      "Guillaume": 5847,
      "populations": 5848,
      "##rica": 5849,
      "Masters": 5850,
      "races": 5851,
      "experience": 5852,
      "Torre": 5853,
      "##unt": 5854,
      "Congo": 5855,
      "king": 5856,
      "contact": 5857,
      "Metro": 5858,
      "Chemistry": 5859,
      "##seen": 5860,
      "pl": 5861,
      "connu": 5862,
      "punt": 5863,
      "deu": 5864,
      "Buch": 5865,
      "##ub": 5866,
      "##ised": 5867,
      "devant": 5868,
      "Medicine": 5869,
      "Berliner": 5870,
      "##wald": 5871,
      "550": 5872,
      "MBC": 5873,
      "Computer": 5874,
      "terre": 5875,
      "##ght": 5876,
      "sat": 5877,
      "Bar": 5878,
      "massa": 5879,
      "Peace": 5880,
      "##wel": 5881,
      "##ved": 5882,
      "raz": 5883,
      "##oy": 5884,
      "versions": 5885,
      "##dne": 5886,
      "##tok": 5887,
      "believed": 5888,
      "Oriental": 5889,
      "mag": 5890,
      "ball": 5891,
      "201": 5892,
      "##yr": 5893,
      "dice": 5894,
      "##platz": 5895,
      "Burg": 5896,
      "agit": 5897,
      "claimed": 5898,
      "parish": 5899,
      "##ř": 5900,
      "écrit": 5901,
      "Republika": 5902,
      "cell": 5903,
      "Hand": 5904,
      "weeks": 5905,
      "Anders": 5906,
      "Side": 5907,
      "Mare": 5908,
      "championship": 5909,
      "stars": 5910,
      "vila": 5911,
      "##fu": 5912,
      "Philippines": 5913,
      "nuclear": 5914,
      "union": 5915,
      "##rian": 5916,
      "Colin": 5917,
      "##bit": 5918,
      "Production": 5919,
      "dû": 5920,
      "Introduction": 5921,
      "failed": 5922,
      "allo": 5923,
      "fight": 5924,
      "architecture": 5925,
      "domaine": 5926,
      "duke": 5927,
      "Historic": 5928,
      "##band": 5929,
      "##kap": 5930,
      "FA": 5931,
      "quand": 5932,
      "foreign": 5933,
      "##nska": 5934,
      "Martínez": 5935,
      "##ann": 5936,
      "gouf": 5937,
      "Federico": 5938,
      "université": 5939,
      "1796": 5940,
      "Meister": 5941,
      "##iger": 5942,
      "command": 5943,
      "siège": 5944,
      "##mir": 5945,
      "winner": 5946,
      "mainly": 5947,
      "Lanka": 5948,
      "Rica": 5949,
      "troops": 5950,
      "electronic": 5951,
      "##bility": 5952,
      "nave": 5953,
      "offered": 5954,
      "225": 5955,
      "Lane": 5956,
      "1775": 5957,
      "Hugh": 5958,
      "Theo": 5959,
      "##ún": 5960,
      "ceux": 5961,
      "##dere": 5962,
      "205": 5963,
      "Primary": 5964,
      "Sánchez": 5965,
      "##cz": 5966,
      "Joachim": 5967,
      "##rkan": 5968,
      "bal": 5969,
      "Perú": 5970,
      "##nidae": 5971,
      "##kka": 5972,
      "##ös": 5973,
      "vivo": 5974,
      "locale": 5975,
      "moi": 5976,
      "helped": 5977,
      "Affairs": 5978,
      "Dresden": 5979,
      "boli": 5980,
      "products": 5981,
      "Due": 5982,
      "##iki": 5983,
      "##ick": 5984,
      "vert": 5985,
      "Seattle": 5986,
      "Willem": 5987,
      "167": 5988,
      "##rana": 5989,
      "##nat": 5990,
      "##recht": 5991,
      "Université": 5992,
      "##bro": 5993,
      "Security": 5994,
      "Karel": 5995,
      "mam": 5996,
      "##imi": 5997,
      "##yk": 5998,
      "Sweden": 5999,
      "tennis": 6000,
      "Hudson": 6001,
      "overall": 6002,
      "border": 6003,
      "fans": 6004,
      "numbers": 6005,
      "##oko": 6006,
      "Lors": 6007,
      "vann": 6008,
      "##kie": 6009,
      "Grammy": 6010,
      "subsequently": 6011,
      "consists": 6012,
      "##ggi": 6013,
      "Kate": 6014,
      "1300": 6015,
      "couple": 6016,
      "might": 6017,
      "prior": 6018,
      "Both": 6019,
      "##idas": 6020,
      "Jo": 6021,
      "##gli": 6022,
      "aire": 6023,
      "Montreal": 6024,
      "Dam": 6025,
      "##zos": 6026,
      "drug": 6027,
      "assistant": 6028,
      "response": 6029,
      "Edgar": 6030,
      "Giorgio": 6031,
      "##onia": 6032,
      "leaving": 6033,
      "hall": 6034,
      "acquired": 6035,
      "Rico": 6036,
      "##gut": 6037,
      "MS": 6038,
      "521": 6039,
      "Ich": 6040,
      "##ché": 6041,
      "157": 6042,
      "opere": 6043,
      "##dent": 6044,
      "turned": 6045,
      "##lingen": 6046,
      "##ctor": 6047,
      "press": 6048,
      "hockey": 6049,
      "##scher": 6050,
      "whole": 6051,
      "Belgique": 6052,
      "##nça": 6053,
      "##onal": 6054,
      "##tou": 6055,
      "sui": 6056,
      "##eb": 6057,
      "Energy": 6058,
      "figures": 6059,
      "##00": 6060,
      "oil": 6061,
      "Seven": 6062,
      "Newton": 6063,
      "department": 6064,
      "sam": 6065,
      "##rra": 6066,
      "carried": 6067,
      "##ars": 6068,
      "Vicente": 6069,
      "##ppe": 6070,
      "allemand": 6071,
      "##water": 6072,
      "Phoenix": 6073,
      "transfer": 6074,
      "##lam": 6075,
      "Cook": 6076,
      "##nun": 6077,
      "bridge": 6078,
      "##gg": 6079,
      "mile": 6080,
      "650": 6081,
      "mind": 6082,
      "nego": 6083,
      "Ved": 6084,
      "290": 6085,
      "##iones": 6086,
      "Electric": 6087,
      "raison": 6088,
      "Bush": 6089,
      "##vil": 6090,
      "Angola": 6091,
      "viz": 6092,
      "##gna": 6093,
      "meaning": 6094,
      "stories": 6095,
      "vocal": 6096,
      "##mina": 6097,
      "161": 6098,
      "Batman": 6099,
      "Jesús": 6100,
      "##aj": 6101,
      "houses": 6102,
      "##ove": 6103,
      "Software": 6104,
      "Marvel": 6105,
      "##cken": 6106,
      "##uo": 6107,
      "Operation": 6108,
      "Emmanuel": 6109,
      "Zum": 6110,
      "Feb": 6111,
      "cabo": 6112,
      "Delta": 6113,
      "##gde": 6114,
      "Take": 6115,
      "Solo": 6116,
      "##nud": 6117,
      "fora": 6118,
      "Action": 6119,
      "##mme": 6120,
      "état": 6121,
      "Drama": 6122,
      "interview": 6123,
      "##ssen": 6124,
      "1980s": 6125,
      "Teresa": 6126,
      "ancient": 6127,
      "opposition": 6128,
      "Despite": 6129,
      "##ños": 6130,
      "##lje": 6131,
      "Bas": 6132,
      "nim": 6133,
      "Rom": 6134,
      "158": 6135,
      "Sus": 6136,
      "Braun": 6137,
      "multi": 6138,
      "sing": 6139,
      "finally": 6140,
      "##stica": 6141,
      "Caroline": 6142,
      "Galerie": 6143,
      "##ε": 6144,
      "voice": 6145,
      "SBS": 6146,
      "163": 6147,
      "dernière": 6148,
      "Theory": 6149,
      "##straße": 6150,
      "effects": 6151,
      "SK": 6152,
      "##ktor": 6153,
      "Via": 6154,
      "sortie": 6155,
      "##lina": 6156,
      "##rda": 6157,
      "Sean": 6158,
      "marriage": 6159,
      "PS": 6160,
      "Wiley": 6161,
      "sien": 6162,
      "earned": 6163,
      "Railways": 6164,
      "permanent": 6165,
      "words": 6166,
      "Beatles": 6167,
      "Type": 6168,
      "##gate": 6169,
      "Petit": 6170,
      "##lica": 6171,
      "##nze": 6172,
      "##aya": 6173,
      "impact": 6174,
      "SA": 6175,
      "##bas": 6176,
      "passa": 6177,
      "pole": 6178,
      "##rst": 6179,
      "##fo": 6180,
      "##jin": 6181,
      "Ba": 6182,
      "occasion": 6183,
      "Helen": 6184,
      "attention": 6185,
      "Cleveland": 6186,
      "Ward": 6187,
      "Grace": 6188,
      "tropical": 6189,
      "Sachsen": 6190,
      "Klaus": 6191,
      "##ike": 6192,
      "Afrique": 6193,
      "Statistical": 6194,
      "voix": 6195,
      "Bremen": 6196,
      "Jennifer": 6197,
      "Depuis": 6198,
      "basso": 6199,
      "renda": 6200,
      "déjà": 6201,
      "Edinburgh": 6202,
      "manga": 6203,
      "nearly": 6204,
      "treatment": 6205,
      "Sophie": 6206,
      "Swedish": 6207,
      "languages": 6208,
      "passe": 6209,
      "Württemberg": 6210,
      "broadcast": 6211,
      "Conform": 6212,
      "attempt": 6213,
      "seasons": 6214,
      "Sarajevo": 6215,
      "habe": 6216,
      "comes": 6217,
      "enough": 6218,
      "Baltimore": 6219,
      "Sofia": 6220,
      "lives": 6221,
      "Tower": 6222,
      "plants": 6223,
      "##dik": 6224,
      "##vam": 6225,
      "##wr": 6226,
      "machine": 6227,
      "Capital": 6228,
      "Pero": 6229,
      "Dakota": 6230,
      "Bundesliga": 6231,
      "torre": 6232,
      "Eduard": 6233,
      "Sevilla": 6234,
      "Minh": 6235,
      "##rina": 6236,
      "Sweet": 6237,
      "remaining": 6238,
      "##meister": 6239,
      "Chelsea": 6240,
      "Te": 6241,
      "##row": 6242,
      "Iraq": 6243,
      "KBS": 6244,
      "reference": 6245,
      "milieu": 6246,
      "Formula": 6247,
      "##rius": 6248,
      "Boris": 6249,
      "Napoleon": 6250,
      "Potter": 6251,
      "Tra": 6252,
      "Nguyễn": 6253,
      "Ronald": 6254,
      "256": 6255,
      "##list": 6256,
      "Round": 6257,
      "##iros": 6258,
      "bl": 6259,
      "Run": 6260,
      "channel": 6261,
      "Luke": 6262,
      "Sex": 6263,
      "##ory": 6264,
      "##iar": 6265,
      "166": 6266,
      "Editorial": 6267,
      "Future": 6268,
      "box": 6269,
      "##lit": 6270,
      "##ncies": 6271,
      "##noj": 6272,
      "Théâtre": 6273,
      "Nation": 6274,
      "want": 6275,
      "starb": 6276,
      "##vik": 6277,
      "product": 6278,
      "Mundo": 6279,
      "Vancouver": 6280,
      "sens": 6281,
      "covered": 6282,
      "##ship": 6283,
      "ring": 6284,
      "Ring": 6285,
      "levels": 6286,
      "femmes": 6287,
      "fills": 6288,
      "##tri": 6289,
      "Mart": 6290,
      "Lars": 6291,
      "164": 6292,
      "Wiener": 6293,
      "252": 6294,
      "responsible": 6295,
      "Vegas": 6296,
      "prendre": 6297,
      "##ök": 6298,
      "##hez": 6299,
      "##ded": 6300,
      "##uf": 6301,
      "Cymru": 6302,
      "##sation": 6303,
      "##ū": 6304,
      "Japon": 6305,
      "cut": 6306,
      "176": 6307,
      "Bretagne": 6308,
      "proposed": 6309,
      "##cke": 6310,
      "##lata": 6311,
      "tin": 6312,
      "Building": 6313,
      "Ban": 6314,
      "fuit": 6315,
      "fit": 6316,
      "162": 6317,
      "Isaac": 6318,
      "Child": 6319,
      "dina": 6320,
      "Heritage": 6321,
      "##rico": 6322,
      "AB": 6323,
      "##psis": 6324,
      "217": 6325,
      "224": 6326,
      "4000": 6327,
      "Wide": 6328,
      "Holy": 6329,
      "NATO": 6330,
      "Key": 6331,
      "chanson": 6332,
      "##hold": 6333,
      "Cameron": 6334,
      "Felix": 6335,
      "##enti": 6336,
      "IBM": 6337,
      "Canton": 6338,
      "latter": 6339,
      "issued": 6340,
      "ata": 6341,
      "joue": 6342,
      "##tation": 6343,
      "Hal": 6344,
      "clima": 6345,
      "technique": 6346,
      "rencontre": 6347,
      "Craig": 6348,
      "Emil": 6349,
      "##pte": 6350,
      "##uga": 6351,
      "initial": 6352,
      "meilleur": 6353,
      "206": 6354,
      "regions": 6355,
      "##üm": 6356,
      "competed": 6357,
      "Hawaii": 6358,
      "heart": 6359,
      "ala": 6360,
      "Connecticut": 6361,
      "##eid": 6362,
      "asi": 6363,
      "##łów": 6364,
      "chart": 6365,
      "participe": 6366,
      "coa": 6367,
      "discovered": 6368,
      "##jat": 6369,
      "finals": 6370,
      "minute": 6371,
      "NBC": 6372,
      "Espagne": 6373,
      "Kane": 6374,
      "bare": 6375,
      "##lay": 6376,
      "Alessandro": 6377,
      "sorti": 6378,
      "Republican": 6379,
      "extended": 6380,
      "Ouest": 6381,
      "table": 6382,
      "documents": 6383,
      "##ilo": 6384,
      "Stato": 6385,
      "##OS": 6386,
      "##oj": 6387,
      "retour": 6388,
      "Rugby": 6389,
      "##rier": 6390,
      "##lade": 6391,
      "Store": 6392,
      "travers": 6393,
      "Transport": 6394,
      "Website": 6395,
      "Justin": 6396,
      "ailleurs": 6397,
      "195": 6398,
      "1780": 6399,
      "yet": 6400,
      "factor": 6401,
      "Again": 6402,
      "##enne": 6403,
      "Renault": 6404,
      "##hir": 6405,
      "1784": 6406,
      "1970s": 6407,
      "além": 6408,
      "Door": 6409,
      "security": 6410,
      "Cet": 6411,
      "know": 6412,
      "##uro": 6413,
      "junior": 6414,
      "Archive": 6415,
      "vel": 6416,
      "235": 6417,
      "##ock": 6418,
      "1787": 6419,
      "Holstein": 6420,
      "starting": 6421,
      "##cka": 6422,
      "dock": 6423,
      "208": 6424,
      "whether": 6425,
      "##ston": 6426,
      "##kes": 6427,
      "Agency": 6428,
      "Shaw": 6429,
      "##ters": 6430,
      "Alliance": 6431,
      "Forum": 6432,
      "sciences": 6433,
      "##stas": 6434,
      "##igo": 6435,
      "##gó": 6436,
      "quality": 6437,
      "172": 6438,
      "kata": 6439,
      "Brigade": 6440,
      "disease": 6441,
      "importance": 6442,
      "##rien": 6443,
      "Polonia": 6444,
      "lor": 6445,
      "Places": 6446,
      "lid": 6447,
      "182": 6448,
      "Plaza": 6449,
      "beaucoup": 6450,
      "Bulgaria": 6451,
      "##mma": 6452,
      "told": 6453,
      "##jska": 6454,
      "##rni": 6455,
      "Bee": 6456,
      "Chi": 6457,
      "##hos": 6458,
      "1783": 6459,
      "Côte": 6460,
      "##rée": 6461,
      "grade": 6462,
      "##aar": 6463,
      "leave": 6464,
      "##este": 6465,
      "travaux": 6466,
      "Alter": 6467,
      "cos": 6468,
      "quest": 6469,
      "177": 6470,
      "luz": 6471,
      "##że": 6472,
      "Butler": 6473,
      "Bonn": 6474,
      "rule": 6475,
      "##mont": 6476,
      "##etti": 6477,
      "##med": 6478,
      "Kings": 6479,
      "allow": 6480,
      "remporte": 6481,
      "##lak": 6482,
      "friends": 6483,
      "lies": 6484,
      "Administration": 6485,
      "##iny": 6486,
      "god": 6487,
      "VF": 6488,
      "master": 6489,
      "Palace": 6490,
      "Éditions": 6491,
      "inter": 6492,
      "212": 6493,
      "true": 6494,
      "Cristo": 6495,
      "Was": 6496,
      "Between": 6497,
      "##kem": 6498,
      "mass": 6499,
      "##àn": 6500,
      "Uma": 6501,
      "Netherlands": 6502,
      "##ttu": 6503,
      "Nigeria": 6504,
      "households": 6505,
      "newspaper": 6506,
      "215": 6507,
      "Spencer": 6508,
      "1788": 6509,
      "elections": 6510,
      "##ctus": 6511,
      "haut": 6512,
      "residents": 6513,
      "##fication": 6514,
      "drums": 6515,
      "directly": 6516,
      "213": 6517,
      "##tako": 6518,
      "musicale": 6519,
      "Metropolitan": 6520,
      "Calais": 6521,
      "##și": 6522,
      "169": 6523,
      "##ikan": 6524,
      "##fel": 6525,
      "despite": 6526,
      "Hindu": 6527,
      "Hope": 6528,
      "##ess": 6529,
      "##tidae": 6530,
      "rivière": 6531,
      "candidate": 6532,
      "Jakob": 6533,
      "basketball": 6534,
      "##elo": 6535,
      "Emperor": 6536,
      "actions": 6537,
      "efforts": 6538,
      "##ése": 6539,
      "##zzi": 6540,
      "Hansen": 6541,
      "Grupo": 6542,
      "##oir": 6543,
      "Sergio": 6544,
      "Study": 6545,
      "constructed": 6546,
      "Glasgow": 6547,
      "Czech": 6548,
      "Islamic": 6549,
      "asked": 6550,
      "says": 6551,
      "selle": 6552,
      "Wallace": 6553,
      "##ago": 6554,
      "##ří": 6555,
      "produit": 6556,
      "Hell": 6557,
      "jamais": 6558,
      "202": 6559,
      "grandi": 6560,
      "Domingo": 6561,
      "##iji": 6562,
      "Chen": 6563,
      "##vina": 6564,
      "big": 6565,
      "Campo": 6566,
      "recherche": 6567,
      "Challenge": 6568,
      "Tartu": 6569,
      "commence": 6570,
      "##pio": 6571,
      "##lies": 6572,
      "activity": 6573,
      "hal": 6574,
      "Youth": 6575,
      "Rainer": 6576,
      "##skie": 6577,
      "coast": 6578,
      "##ór": 6579,
      "Berkeley": 6580,
      "##alo": 6581,
      "Organisation": 6582,
      "Linda": 6583,
      "##ees": 6584,
      "barn": 6585,
      "frère": 6586,
      "##eit": 6587,
      "fifth": 6588,
      "##ple": 6589,
      "formerly": 6590,
      "Works": 6591,
      "consiste": 6592,
      "##dde": 6593,
      "bile": 6594,
      "graduated": 6595,
      "inferior": 6596,
      "204": 6597,
      "ea": 6598,
      "##rf": 6599,
      "cine": 6600,
      "##vali": 6601,
      "corte": 6602,
      "##²": 6603,
      "Trust": 6604,
      "seconde": 6605,
      "nation": 6606,
      "Nepal": 6607,
      "##care": 6608,
      "ud": 6609,
      "Productions": 6610,
      "Kiss": 6611,
      "kind": 6612,
      "MM": 6613,
      "Liberal": 6614,
      "Short": 6615,
      "Princess": 6616,
      "Senate": 6617,
      "Helena": 6618,
      "380": 6619,
      "##itu": 6620,
      "nearby": 6621,
      "Herman": 6622,
      "Roll": 6623,
      "Rights": 6624,
      "kilomètres": 6625,
      "indica": 6626,
      "promoted": 6627,
      "median": 6628,
      "##enden": 6629,
      "##ivi": 6630,
      "Forces": 6631,
      "petite": 6632,
      "seulement": 6633,
      "Freedom": 6634,
      "Facebook": 6635,
      "##tten": 6636,
      "mere": 6637,
      "##bora": 6638,
      "pai": 6639,
      "Elena": 6640,
      "188": 6641,
      "Hart": 6642,
      "mogu": 6643,
      "István": 6644,
      "données": 6645,
      "percent": 6646,
      "Diana": 6647,
      "Kenneth": 6648,
      "Brooklyn": 6649,
      "désa": 6650,
      "Bolivia": 6651,
      "Olivier": 6652,
      "langue": 6653,
      "managed": 6654,
      "Gregory": 6655,
      "maximum": 6656,
      "##hs": 6657,
      "##cima": 6658,
      "179": 6659,
      "##ști": 6660,
      "##sco": 6661,
      "340": 6662,
      "##gens": 6663,
      "method": 6664,
      "Deux": 6665,
      "Utah": 6666,
      "search": 6667,
      "parfois": 6668,
      "donna": 6669,
      "medieval": 6670,
      "##rati": 6671,
      "primarily": 6672,
      "Murphy": 6673,
      "bois": 6674,
      "num": 6675,
      "Greg": 6676,
      "models": 6677,
      "Player": 6678,
      "##kla": 6679,
      "211": 6680,
      "baseball": 6681,
      "##ome": 6682,
      "##iten": 6683,
      "Facts": 6684,
      "##nji": 6685,
      "ton": 6686,
      "ll": 6687,
      "##aki": 6688,
      "##ioni": 6689,
      "techniques": 6690,
      "178": 6691,
      "dess": 6692,
      "171": 6693,
      "females": 6694,
      "Tamil": 6695,
      "##bla": 6696,
      "images": 6697,
      "Test": 6698,
      "Theodor": 6699,
      "likely": 6700,
      "##gent": 6701,
      "##js": 6702,
      "eux": 6703,
      "183": 6704,
      "##dale": 6705,
      "Marne": 6706,
      "IATA": 6707,
      "ships": 6708,
      "servir": 6709,
      "Turkey": 6710,
      "193": 6711,
      "##ated": 6712,
      "quel": 6713,
      "animals": 6714,
      "##ible": 6715,
      "##com": 6716,
      "exterior": 6717,
      "Leopold": 6718,
      "181": 6719,
      "##ulo": 6720,
      "arter": 6721,
      "##rca": 6722,
      "NY": 6723,
      "##èl": 6724,
      "##sza": 6725,
      "1785": 6726,
      "ID": 6727,
      "TBS": 6728,
      "crime": 6729,
      "##iere": 6730,
      "SP": 6731,
      "wing": 6732,
      "##bon": 6733,
      "Leonardo": 6734,
      "argent": 6735,
      "##owi": 6736,
      "Tanzania": 6737,
      "Squadron": 6738,
      "Norway": 6739,
      "arrived": 6740,
      "wanted": 6741,
      "##ants": 6742,
      "alternative": 6743,
      "Commonwealth": 6744,
      "partire": 6745,
      "pare": 6746,
      "origin": 6747,
      "##ensis": 6748,
      "##rno": 6749,
      "Rebecca": 6750,
      "Bologna": 6751,
      "1776": 6752,
      "##eel": 6753,
      "##ldi": 6754,
      "duc": 6755,
      "##ther": 6756,
      "##ló": 6757,
      "highly": 6758,
      "savo": 6759,
      "commerce": 6760,
      "##schule": 6761,
      "appear": 6762,
      "Alla": 6763,
      "##20": 6764,
      "Jonas": 6765,
      "journalist": 6766,
      "##vent": 6767,
      "posterior": 6768,
      "##oo": 6769,
      "équipes": 6770,
      "184": 6771,
      "Venezia": 6772,
      "Bond": 6773,
      "hulle": 6774,
      "##år": 6775,
      "executive": 6776,
      "catalog": 6777,
      "Happy": 6778,
      "trains": 6779,
      "Avec": 6780,
      "Local": 6781,
      "Ice": 6782,
      "##rol": 6783,
      "Source": 6784,
      "grands": 6785,
      "Fantasy": 6786,
      "##nation": 6787,
      "Birmingham": 6788,
      "acteur": 6789,
      "Lucky": 6790,
      "222": 6791,
      "passage": 6792,
      "##mark": 6793,
      "cancer": 6794,
      "Frans": 6795,
      "##gis": 6796,
      "##nsi": 6797,
      "##bol": 6798,
      "207": 6799,
      "Torres": 6800,
      "Allah": 6801,
      "Harvey": 6802,
      "##zon": 6803,
      "performances": 6804,
      "occidental": 6805,
      "##tva": 6806,
      "platform": 6807,
      "sob": 6808,
      "János": 6809,
      "##ème": 6810,
      "##ām": 6811,
      "Publishers": 6812,
      "174": 6813,
      "Tot": 6814,
      "Race": 6815,
      "##arna": 6816,
      "Conseil": 6817,
      "romano": 6818,
      "Auguste": 6819,
      "particulier": 6820,
      "##par": 6821,
      "Gene": 6822,
      "Titre": 6823,
      "tat": 6824,
      "bataille": 6825,
      "Alta": 6826,
      "Oh": 6827,
      "Petersburg": 6828,
      "Counties": 6829,
      "##nent": 6830,
      "FK": 6831,
      "saying": 6832,
      "Mind": 6833,
      "Cultura": 6834,
      "Turkish": 6835,
      "##pos": 6836,
      "173": 6837,
      "Orleans": 6838,
      "1960s": 6839,
      "##jus": 6840,
      "Ain": 6841,
      "partner": 6842,
      "founder": 6843,
      "1990s": 6844,
      "Wind": 6845,
      "##lare": 6846,
      "Île": 6847,
      "##tera": 6848,
      "timp": 6849,
      "projects": 6850,
      "##cina": 6851,
      "Weg": 6852,
      "##isé": 6853,
      "197": 6854,
      "Javier": 6855,
      "##ér": 6856,
      "crisis": 6857,
      "prominent": 6858,
      "théâtre": 6859,
      "quelle": 6860,
      "Supreme": 6861,
      "bon": 6862,
      "Klein": 6863,
      "nouvelles": 6864,
      "##fte": 6865,
      "##lls": 6866,
      "##chu": 6867,
      "##tiques": 6868,
      "##dora": 6869,
      "Louisiana": 6870,
      "##ffer": 6871,
      "Aircraft": 6872,
      "##alt": 6873,
      "physical": 6874,
      "Senior": 6875,
      "appearances": 6876,
      "prej": 6877,
      "Indien": 6878,
      "abord": 6879,
      "Upper": 6880,
      "Marx": 6881,
      "oriental": 6882,
      "Clarke": 6883,
      "Provence": 6884,
      "historique": 6885,
      "pont": 6886,
      "Magnus": 6887,
      "ina": 6888,
      "Nombre": 6889,
      "Luna": 6890,
      "##yar": 6891,
      "##ossa": 6892,
      "##eron": 6893,
      "Heaven": 6894,
      "Uni": 6895,
      "Angelo": 6896,
      "Ted": 6897,
      "Member": 6898,
      "knowledge": 6899,
      "##gere": 6900,
      "inside": 6901,
      "##erer": 6902,
      "Swiss": 6903,
      "AD": 6904,
      "Musée": 6905,
      "##nau": 6906,
      "duo": 6907,
      "Price": 6908,
      "ju": 6909,
      "Bowl": 6910,
      "extension": 6911,
      "conta": 6912,
      "Xbox": 6913,
      "communauté": 6914,
      "##ining": 6915,
      "Jose": 6916,
      "##asa": 6917,
      "SR": 6918,
      "##ovat": 6919,
      "Baptiste": 6920,
      "edu": 6921,
      "##inu": 6922,
      "wi": 6923,
      "##vne": 6924,
      "Rangers": 6925,
      "##fort": 6926,
      "card": 6927,
      "objet": 6928,
      "SE": 6929,
      "##idea": 6930,
      "Carol": 6931,
      "Common": 6932,
      "approach": 6933,
      "literature": 6934,
      "Wu": 6935,
      "Once": 6936,
      "Creative": 6937,
      "potential": 6938,
      "Sara": 6939,
      "##aron": 6940,
      "Clara": 6941,
      "##rze": 6942,
      "##tung": 6943,
      "gminy": 6944,
      "capacity": 6945,
      "gun": 6946,
      "Soc": 6947,
      "Pete": 6948,
      "bolo": 6949,
      "Armee": 6950,
      "Albums": 6951,
      "Friends": 6952,
      "Văn": 6953,
      "Manhattan": 6954,
      "Vila": 6955,
      "Falls": 6956,
      "Reserve": 6957,
      "##pta": 6958,
      "rules": 6959,
      "##uni": 6960,
      "##buch": 6961,
      "revealed": 6962,
      "formal": 6963,
      "##ery": 6964,
      "aide": 6965,
      "Nell": 6966,
      "sole": 6967,
      "480": 6968,
      "dun": 6969,
      "Gerhard": 6970,
      "Amy": 6971,
      "##juk": 6972,
      "eri": 6973,
      "Julian": 6974,
      "commonly": 6975,
      "##but": 6976,
      "promotion": 6977,
      "##eto": 6978,
      "Season": 6979,
      "cells": 6980,
      "##ode": 6981,
      "##zne": 6982,
      "library": 6983,
      "positions": 6984,
      "Grund": 6985,
      "transferred": 6986,
      "materials": 6987,
      "tree": 6988,
      "focus": 6989,
      "file": 6990,
      "account": 6991,
      "##oka": 6992,
      "##eet": 6993,
      "aurait": 6994,
      "espèces": 6995,
      "bases": 6996,
      "dix": 6997,
      "##ík": 6998,
      "Each": 6999,
      "américaine": 7000,
      "187": 7001,
      "##rov": 7002,
      "longitud": 7003,
      "##zan": 7004,
      "Noord": 7005,
      "Notes": 7006,
      "Paz": 7007,
      "##gle": 7008,
      "OF": 7009,
      "##iad": 7010,
      "Landes": 7011,
      "poor": 7012,
      "punk": 7013,
      "fare": 7014,
      "blue": 7015,
      "5th": 7016,
      "##iidae": 7017,
      "Malta": 7018,
      "Auto": 7019,
      "vant": 7020,
      "meet": 7021,
      "utilisé": 7022,
      "Toledo": 7023,
      "##éu": 7024,
      "##uden": 7025,
      "surtout": 7026,
      "probably": 7027,
      "Florence": 7028,
      "##ény": 7029,
      "Rain": 7030,
      "Philipp": 7031,
      "officially": 7032,
      "186": 7033,
      "scientific": 7034,
      "##lma": 7035,
      "Change": 7036,
      "forward": 7037,
      "smaller": 7038,
      "##nium": 7039,
      "##stone": 7040,
      "##sha": 7041,
      "parmi": 7042,
      "Dog": 7043,
      "Pod": 7044,
      "green": 7045,
      "soldiers": 7046,
      "équipements": 7047,
      "SPD": 7048,
      "Irlanda": 7049,
      "Through": 7050,
      "build": 7051,
      "Nash": 7052,
      "Finale": 7053,
      "Lieutenant": 7054,
      "autour": 7055,
      "urban": 7056,
      "##eten": 7057,
      "Chapter": 7058,
      "Autor": 7059,
      "Sci": 7060,
      "221": 7061,
      "dedicated": 7062,
      "Stein": 7063,
      "199": 7064,
      "Halle": 7065,
      "density": 7066,
      "Musical": 7067,
      "##ln": 7068,
      "##nova": 7069,
      "designated": 7070,
      "Ses": 7071,
      "##lda": 7072,
      "pass": 7073,
      "silver": 7074,
      "1100": 7075,
      "Proceedings": 7076,
      "Madison": 7077,
      "renamed": 7078,
      "209": 7079,
      "Heinz": 7080,
      "Generation": 7081,
      "construit": 7082,
      "firm": 7083,
      "Pink": 7084,
      "Rogers": 7085,
      "##enta": 7086,
      "except": 7087,
      "Alejandro": 7088,
      "principe": 7089,
      "Bahn": 7090,
      "blanc": 7091,
      "##ray": 7092,
      "##ever": 7093,
      "Holmes": 7094,
      "Alexandra": 7095,
      "divided": 7096,
      "##km": 7097,
      "awards": 7098,
      "vis": 7099,
      "198": 7100,
      "Minas": 7101,
      "lac": 7102,
      "Liu": 7103,
      "dead": 7104,
      "pressure": 7105,
      "seda": 7106,
      "1786": 7107,
      "brand": 7108,
      "Düsseldorf": 7109,
      "Christoph": 7110,
      "Sullivan": 7111,
      "##có": 7112,
      "1770": 7113,
      "##kia": 7114,
      "Persian": 7115,
      "##con": 7116,
      "Right": 7117,
      "Off": 7118,
      "pou": 7119,
      "algo": 7120,
      "Episode": 7121,
      "##rah": 7122,
      "sons": 7123,
      "council": 7124,
      "Mobile": 7125,
      "temperature": 7126,
      "##μ": 7127,
      "expression": 7128,
      "##tit": 7129,
      "solar": 7130,
      "Atlético": 7131,
      "collaboration": 7132,
      "Where": 7133,
      "jih": 7134,
      "1750": 7135,
      "Académie": 7136,
      "189": 7137,
      "241": 7138,
      "Davies": 7139,
      "##ø": 7140,
      "terminal": 7141,
      "Call": 7142,
      "Ramón": 7143,
      "moving": 7144,
      "ibi": 7145,
      "Gmina": 7146,
      "parc": 7147,
      "##ép": 7148,
      "grave": 7149,
      "##zka": 7150,
      "flight": 7151,
      "officers": 7152,
      "lack": 7153,
      "quais": 7154,
      "Christine": 7155,
      "##şı": 7156,
      "quickly": 7157,
      "travel": 7158,
      "viel": 7159,
      "sets": 7160,
      "ability": 7161,
      "ig": 7162,
      "Miles": 7163,
      "episodes": 7164,
      "2020": 7165,
      "links": 7166,
      "##mai": 7167,
      "Executive": 7168,
      "##zni": 7169,
      "191": 7170,
      "grew": 7171,
      "Julio": 7172,
      "##isti": 7173,
      "titled": 7174,
      "réseau": 7175,
      "Mother": 7176,
      "trial": 7177,
      "job": 7178,
      "Cinema": 7179,
      "##tif": 7180,
      "desse": 7181,
      "lane": 7182,
      "gut": 7183,
      "##ave": 7184,
      "Abdul": 7185,
      "##ense": 7186,
      "unde": 7187,
      "Full": 7188,
      "##eken": 7189,
      "Double": 7190,
      "secret": 7191,
      "##anza": 7192,
      "quartier": 7193,
      "loc": 7194,
      "Evolution": 7195,
      "créé": 7196,
      "196": 7197,
      "Morning": 7198,
      "216": 7199,
      "Bình": 7200,
      "moral": 7201,
      "Serra": 7202,
      "Beck": 7203,
      "audio": 7204,
      "planeta": 7205,
      "Nga": 7206,
      "Heidelberg": 7207,
      "follows": 7208,
      "Text": 7209,
      "historic": 7210,
      "join": 7211,
      "Punta": 7212,
      "XXI": 7213,
      "auteurs": 7214,
      "##cum": 7215,
      "##bou": 7216,
      "Jefferson": 7217,
      "##rés": 7218,
      "Eurovision": 7219,
      "Peak": 7220,
      "conducted": 7221,
      "##onen": 7222,
      "Angleterre": 7223,
      "mixed": 7224,
      "HC": 7225,
      "recently": 7226,
      "mouvement": 7227,
      "##ional": 7228,
      "Córdoba": 7229,
      "monte": 7230,
      "214": 7231,
      "##rim": 7232,
      "Rachel": 7233,
      "say": 7234,
      "academic": 7235,
      "Xavier": 7236,
      "diffusion": 7237,
      "226": 7238,
      "ordered": 7239,
      "MHz": 7240,
      "becomes": 7241,
      "Wie": 7242,
      "épouse": 7243,
      "needed": 7244,
      "Lang": 7245,
      "Cole": 7246,
      "ideas": 7247,
      "##uu": 7248,
      "drive": 7249,
      "Château": 7250,
      "540": 7251,
      "Pittsburgh": 7252,
      "##sberg": 7253,
      "Irak": 7254,
      "offers": 7255,
      "keep": 7256,
      "Beijing": 7257,
      "workers": 7258,
      "Schleswig": 7259,
      "László": 7260,
      "PR": 7261,
      "street": 7262,
      "##oti": 7263,
      "Parque": 7264,
      "Bros": 7265,
      "Dos": 7266,
      "Sungai": 7267,
      "Owen": 7268,
      "dessa": 7269,
      "Quebec": 7270,
      "sales": 7271,
      "Lu": 7272,
      "Virgin": 7273,
      "floor": 7274,
      "##ttes": 7275,
      "NCAA": 7276,
      "share": 7277,
      "##eer": 7278,
      "Golf": 7279,
      "Pope": 7280,
      "##tino": 7281,
      "Ankara": 7282,
      "thu": 7283,
      "Yale": 7284,
      "personnel": 7285,
      "introduction": 7286,
      "##mak": 7287,
      "Storm": 7288,
      "275": 7289,
      "##rir": 7290,
      "removed": 7291,
      "Augustus": 7292,
      "serial": 7293,
      "rare": 7294,
      "Luxembourg": 7295,
      "stone": 7296,
      "##nir": 7297,
      "defined": 7298,
      "Fauna": 7299,
      "Neue": 7300,
      "mang": 7301,
      "##ével": 7302,
      "angol": 7303,
      "##name": 7304,
      "Koch": 7305,
      "##eng": 7306,
      "Adrian": 7307,
      "Organization": 7308,
      "settlement": 7309,
      "##cé": 7310,
      "esti": 7311,
      "Gino": 7312,
      "##park": 7313,
      "232": 7314,
      "Command": 7315,
      "Hard": 7316,
      "Biology": 7317,
      "##kirche": 7318,
      "Rural": 7319,
      "##late": 7320,
      "royal": 7321,
      "Arkansas": 7322,
      "##gues": 7323,
      "coming": 7324,
      "Première": 7325,
      "Car": 7326,
      "##bé": 7327,
      "##vie": 7328,
      "Portal": 7329,
      "parking": 7330,
      "Ruth": 7331,
      "Bass": 7332,
      "Pont": 7333,
      "lb": 7334,
      "##vao": 7335,
      "310": 7336,
      "différents": 7337,
      "BMW": 7338,
      "Money": 7339,
      "##kle": 7340,
      "Pyrénées": 7341,
      "##tio": 7342,
      "##jal": 7343,
      "##gruppe": 7344,
      "roles": 7345,
      "##tare": 7346,
      "archaeological": 7347,
      "##entes": 7348,
      "255": 7349,
      "Tierra": 7350,
      "immediately": 7351,
      "##rch": 7352,
      "crew": 7353,
      "gauche": 7354,
      "Stanford": 7355,
      "##nit": 7356,
      "##fan": 7357,
      "##dera": 7358,
      "Grey": 7359,
      "queste": 7360,
      "##dang": 7361,
      "Mercury": 7362,
      "##cada": 7363,
      "##enie": 7364,
      "##bourg": 7365,
      "Wasser": 7366,
      "Cap": 7367,
      "intended": 7368,
      "amount": 7369,
      "##uce": 7370,
      "##ington": 7371,
      "##uka": 7372,
      "True": 7373,
      "Bangladesh": 7374,
      "pris": 7375,
      "alone": 7376,
      "destroyed": 7377,
      "##ER": 7378,
      "Phillips": 7379,
      "##iant": 7380,
      "Église": 7381,
      "thi": 7382,
      "Mountains": 7383,
      "Walt": 7384,
      "pi": 7385,
      "prince": 7386,
      "##ages": 7387,
      "housing": 7388,
      "Jeanne": 7389,
      "Mason": 7390,
      "fonction": 7391,
      "IP": 7392,
      "spider": 7393,
      "prie": 7394,
      "##rów": 7395,
      "##sit": 7396,
      "Performance": 7397,
      "split": 7398,
      "Clinton": 7399,
      "##ied": 7400,
      "##rang": 7401,
      "370": 7402,
      "participated": 7403,
      "##vers": 7404,
      "Because": 7405,
      "##can": 7406,
      "leaders": 7407,
      "Sua": 7408,
      "Constitution": 7409,
      "compagnie": 7410,
      "Brandenburg": 7411,
      "Esto": 7412,
      "##ncy": 7413,
      "##jima": 7414,
      "Religion": 7415,
      "Nos": 7416,
      "upper": 7417,
      "##aine": 7418,
      "Zaragoza": 7419,
      "Jeux": 7420,
      "##sce": 7421,
      "risk": 7422,
      "Shanghai": 7423,
      "Food": 7424,
      "##sma": 7425,
      "Weekly": 7426,
      "##pers": 7427,
      "break": 7428,
      "Link": 7429,
      "##fy": 7430,
      "##ví": 7431,
      "##uli": 7432,
      "Más": 7433,
      "Ecology": 7434,
      "operating": 7435,
      "##iza": 7436,
      "youth": 7437,
      "Bachelor": 7438,
      "Bruxelles": 7439,
      "victoire": 7440,
      "honneur": 7441,
      "##kker": 7442,
      "##cular": 7443,
      "##wang": 7444,
      "Suisse": 7445,
      "420": 7446,
      "##assa": 7447,
      "##tea": 7448,
      "##kur": 7449,
      "rad": 7450,
      "Étienne": 7451,
      "##nega": 7452,
      "actress": 7453,
      "Know": 7454,
      "Mozart": 7455,
      "dias": 7456,
      "reach": 7457,
      "campagne": 7458,
      "Internationale": 7459,
      "pari": 7460,
      "##cta": 7461,
      "Got": 7462,
      "planned": 7463,
      "Enrico": 7464,
      "widely": 7465,
      "hora": 7466,
      "facilities": 7467,
      "##enberg": 7468,
      "##sman": 7469,
      "Twitter": 7470,
      "##light": 7471,
      "acid": 7472,
      "Cependant": 7473,
      "Analysis": 7474,
      "vari": 7475,
      "##eld": 7476,
      "Industrial": 7477,
      "Blake": 7478,
      "##lk": 7479,
      "##tors": 7480,
      "##iek": 7481,
      "##etto": 7482,
      "##lir": 7483,
      "458": 7484,
      "##chter": 7485,
      "Piano": 7486,
      "AM": 7487,
      "britannique": 7488,
      "Alonso": 7489,
      "##bis": 7490,
      "instrument": 7491,
      "Iglesia": 7492,
      "Tres": 7493,
      "seule": 7494,
      "Avery": 7495,
      "saint": 7496,
      "Aaron": 7497,
      "##dzie": 7498,
      "Case": 7499,
      "Sub": 7500,
      "Inter": 7501,
      "Hungarian": 7502,
      "Commissioner": 7503,
      "##aran": 7504,
      "Living": 7505,
      "##zak": 7506,
      "actually": 7507,
      "##ums": 7508,
      "Athletic": 7509,
      "##ents": 7510,
      "##rini": 7511,
      "238": 7512,
      "Handbook": 7513,
      "Paula": 7514,
      "territory": 7515,
      "Dylan": 7516,
      "##ives": 7517,
      "Montana": 7518,
      "habitat": 7519,
      "districts": 7520,
      "Erich": 7521,
      "owner": 7522,
      "223": 7523,
      "Edmund": 7524,
      "Palazzo": 7525,
      "giving": 7526,
      "Mali": 7527,
      "##ening": 7528,
      "Trophy": 7529,
      "##aceae": 7530,
      "##anti": 7531,
      "offer": 7532,
      "footballer": 7533,
      "Tor": 7534,
      "Claire": 7535,
      "Zeitung": 7536,
      "Bang": 7537,
      "musée": 7538,
      "gara": 7539,
      "Wikipédia": 7540,
      "purchased": 7541,
      "tales": 7542,
      "Alt": 7543,
      "Joel": 7544,
      "Among": 7545,
      "Tal": 7546,
      "Armstrong": 7547,
      "serves": 7548,
      "obtient": 7549,
      "##inn": 7550,
      "##aro": 7551,
      "asl": 7552,
      "Shah": 7553,
      "194": 7554,
      "Spirit": 7555,
      "Résumé": 7556,
      "Bryan": 7557,
      "##tika": 7558,
      "1774": 7559,
      "leaves": 7560,
      "equipment": 7561,
      "##koa": 7562,
      "critical": 7563,
      "obtenir": 7564,
      "therefore": 7565,
      "Pradesh": 7566,
      "1782": 7567,
      "Physics": 7568,
      "mari": 7569,
      "##lama": 7570,
      "##dien": 7571,
      "demande": 7572,
      "cura": 7573,
      "##encia": 7574,
      "Plata": 7575,
      "Zhang": 7576,
      "cela": 7577,
      "torna": 7578,
      "Montréal": 7579,
      "##cchi": 7580,
      "CEO": 7581,
      "Weber": 7582,
      "##day": 7583,
      "visual": 7584,
      "Karen": 7585,
      "purpose": 7586,
      "##eden": 7587,
      "##enen": 7588,
      "Simpson": 7589,
      "Stevens": 7590,
      "##ık": 7591,
      "Dollar": 7592,
      "Away": 7593,
      "218": 7594,
      "Hungary": 7595,
      "cars": 7596,
      "##tag": 7597,
      "##icht": 7598,
      "Mayo": 7599,
      "Philosophy": 7600,
      "civile": 7601,
      "males": 7602,
      "fellow": 7603,
      "conflict": 7604,
      "typically": 7605,
      "##bad": 7606,
      "Say": 7607,
      "##lna": 7608,
      "##ussa": 7609,
      "poet": 7610,
      "rive": 7611,
      "##esse": 7612,
      "ice": 7613,
      "organized": 7614,
      "Nevada": 7615,
      "Escuela": 7616,
      "MC": 7617,
      "440": 7618,
      "votes": 7619,
      "branch": 7620,
      "Monaco": 7621,
      "mobile": 7622,
      "composition": 7623,
      "Face": 7624,
      "felt": 7625,
      "varie": 7626,
      "institutions": 7627,
      "##kse": 7628,
      "things": 7629,
      "Laut": 7630,
      "Zuid": 7631,
      "Scientific": 7632,
      "##ière": 7633,
      "##zte": 7634,
      "##tów": 7635,
      "girl": 7636,
      "pista": 7637,
      "##nsis": 7638,
      "Derby": 7639,
      "##kant": 7640,
      "CA": 7641,
      "Todd": 7642,
      "##zna": 7643,
      "birth": 7644,
      "condition": 7645,
      "Pat": 7646,
      "Ahmad": 7647,
      "Armenia": 7648,
      "Next": 7649,
      "adopted": 7650,
      "Symphony": 7651,
      "hour": 7652,
      "##owo": 7653,
      "Bristol": 7654,
      "acqua": 7655,
      "##12": 7656,
      "##win": 7657,
      "Kongo": 7658,
      "publié": 7659,
      "Sicilia": 7660,
      "Granada": 7661,
      "##gina": 7662,
      "Ville": 7663,
      "##nad": 7664,
      "Rev": 7665,
      "##book": 7666,
      "deriva": 7667,
      "Why": 7668,
      "Colonel": 7669,
      "Norwegian": 7670,
      "premières": 7671,
      "Artes": 7672,
      "rival": 7673,
      "oblast": 7674,
      "1772": 7675,
      "defeat": 7676,
      "assigned": 7677,
      "regime": 7678,
      "Comité": 7679,
      "lequel": 7680,
      "1778": 7681,
      "armes": 7682,
      "##él": 7683,
      "##hte": 7684,
      "##wick": 7685,
      "hindi": 7686,
      "sociales": 7687,
      "plupart": 7688,
      "##ello": 7689,
      "##ote": 7690,
      "##ám": 7691,
      "2500": 7692,
      "expansion": 7693,
      "##rten": 7694,
      "Voice": 7695,
      "cependant": 7696,
      "##vien": 7697,
      "Romano": 7698,
      "Fine": 7699,
      "Map": 7700,
      "Saturday": 7701,
      "##rul": 7702,
      "Have": 7703,
      "##nka": 7704,
      "Reed": 7705,
      "reviews": 7706,
      "Bernhard": 7707,
      "##bres": 7708,
      "Prof": 7709,
      "clear": 7710,
      "USD": 7711,
      "Kind": 7712,
      "##jev": 7713,
      "##rri": 7714,
      "##sun": 7715,
      "6th": 7716,
      "##nelle": 7717,
      "248": 7718,
      "Utrecht": 7719,
      "força": 7720,
      "##isia": 7721,
      "Bible": 7722,
      "circuit": 7723,
      "conseil": 7724,
      "provincial": 7725,
      "dau": 7726,
      "Tuy": 7727,
      "hen": 7728,
      "##inga": 7729,
      "Fisher": 7730,
      "mentioned": 7731,
      "gene": 7732,
      "blood": 7733,
      "effort": 7734,
      "structures": 7735,
      "continua": 7736,
      "##yev": 7737,
      "Charts": 7738,
      "lake": 7739,
      "accepted": 7740,
      "Col": 7741,
      "Geological": 7742,
      "Number": 7743,
      "vous": 7744,
      "Ferenc": 7745,
      "850": 7746,
      "Marcos": 7747,
      "Greatest": 7748,
      "##ș": 7749,
      "read": 7750,
      "Frederik": 7751,
      "tar": 7752,
      "##TA": 7753,
      "gives": 7754,
      "##rist": 7755,
      "1781": 7756,
      "pan": 7757,
      "foot": 7758,
      "##ations": 7759,
      "234": 7760,
      "##gono": 7761,
      "##tad": 7762,
      "Viktor": 7763,
      "Andrés": 7764,
      "Ángel": 7765,
      "Rei": 7766,
      "##amt": 7767,
      "mor": 7768,
      "##mist": 7769,
      "communication": 7770,
      "teacher": 7771,
      "tandis": 7772,
      "Voor": 7773,
      "IF": 7774,
      "Panama": 7775,
      "##iser": 7776,
      "plantes": 7777,
      "engineering": 7778,
      "##upa": 7779,
      "##esen": 7780,
      "1777": 7781,
      "Marseille": 7782,
      "declared": 7783,
      "##bot": 7784,
      "tome": 7785,
      "##coli": 7786,
      "##ckt": 7787,
      "conference": 7788,
      "captured": 7789,
      "electric": 7790,
      "##tom": 7791,
      "231": 7792,
      "accident": 7793,
      "frac": 7794,
      "archive": 7795,
      "Augusta": 7796,
      "Thomson": 7797,
      "##bek": 7798,
      "formes": 7799,
      "Staten": 7800,
      "##ES": 7801,
      "russe": 7802,
      "Cat": 7803,
      "genera": 7804,
      "##uses": 7805,
      "Ellen": 7806,
      "DE": 7807,
      "Americans": 7808,
      "Gómez": 7809,
      "Mesa": 7810,
      "manière": 7811,
      "volumes": 7812,
      "##ws": 7813,
      "profit": 7814,
      "guide": 7815,
      "kar": 7816,
      "acting": 7817,
      "##ious": 7818,
      "basic": 7819,
      "##uno": 7820,
      "Cold": 7821,
      "##aste": 7822,
      "sept": 7823,
      "texte": 7824,
      "dark": 7825,
      "mini": 7826,
      "312": 7827,
      "Rita": 7828,
      "305": 7829,
      "sett": 7830,
      "alongside": 7831,
      "Paraguay": 7832,
      "tip": 7833,
      "leadership": 7834,
      "Bern": 7835,
      "253": 7836,
      "##oc": 7837,
      "Yemen": 7838,
      "##cze": 7839,
      "##pora": 7840,
      "Gibson": 7841,
      "##usta": 7842,
      "##cza": 7843,
      "Rotterdam": 7844,
      "Late": 7845,
      "mesure": 7846,
      "Documents": 7847,
      "Ya": 7848,
      "##iku": 7849,
      "Greece": 7850,
      "look": 7851,
      "Oro": 7852,
      "##ğa": 7853,
      "document": 7854,
      "Hits": 7855,
      "Bordeaux": 7856,
      "Stage": 7857,
      "Diamond": 7858,
      "##nien": 7859,
      "Prins": 7860,
      "respectively": 7861,
      "##tka": 7862,
      "Cao": 7863,
      "Andre": 7864,
      "Insee": 7865,
      "fell": 7866,
      "##zor": 7867,
      "##née": 7868,
      "##oga": 7869,
      "amour": 7870,
      "isola": 7871,
      "Politics": 7872,
      "super": 7873,
      "Istanbul": 7874,
      "Total": 7875,
      "gained": 7876,
      "Nielsen": 7877,
      "Drive": 7878,
      "Week": 7879,
      "##oru": 7880,
      "difficult": 7881,
      "mountain": 7882,
      "GP": 7883,
      "communities": 7884,
      "Superior": 7885,
      "relation": 7886,
      "##tne": 7887,
      "##rma": 7888,
      "##itt": 7889,
      "ranked": 7890,
      "##sey": 7891,
      "##pit": 7892,
      "cannot": 7893,
      "Toulouse": 7894,
      "continues": 7895,
      "estimated": 7896,
      "Legend": 7897,
      "Tage": 7898,
      "##lea": 7899,
      "##uru": 7900,
      "Emily": 7901,
      "##yu": 7902,
      "##mbo": 7903,
      "Honda": 7904,
      "budget": 7905,
      "CC": 7906,
      "memory": 7907,
      "##lash": 7908,
      "fronte": 7909,
      "combined": 7910,
      "##lic": 7911,
      "##vant": 7912,
      "relative": 7913,
      "Convention": 7914,
      "territori": 7915,
      "##ition": 7916,
      "##lene": 7917,
      "Wells": 7918,
      "##ünde": 7919,
      "gh": 7920,
      "principalement": 7921,
      "Ini": 7922,
      "##zett": 7923,
      "239": 7924,
      "Raven": 7925,
      "largely": 7926,
      "Springs": 7927,
      "possède": 7928,
      "Foster": 7929,
      "##drag": 7930,
      "Ulrich": 7931,
      "264": 7932,
      "desta": 7933,
      "227": 7934,
      "responsable": 7935,
      "Tel": 7936,
      "artistes": 7937,
      "hip": 7938,
      "Portland": 7939,
      "Tales": 7940,
      "365": 7941,
      "##tha": 7942,
      "##kke": 7943,
      "contemporary": 7944,
      "375": 7945,
      "Linnaeus": 7946,
      "##eza": 7947,
      "Devil": 7948,
      "Hunt": 7949,
      "hosted": 7950,
      "appelé": 7951,
      "Birds": 7952,
      "##zny": 7953,
      "importants": 7954,
      "remain": 7955,
      "##dge": 7956,
      "agreement": 7957,
      "##erie": 7958,
      "##xes": 7959,
      "Powell": 7960,
      "goes": 7961,
      "József": 7962,
      "Ka": 7963,
      "##nter": 7964,
      "Carabidae": 7965,
      "baie": 7966,
      "Richmond": 7967,
      "SV": 7968,
      "properties": 7969,
      "val": 7970,
      "ort": 7971,
      "##ít": 7972,
      "##zem": 7973,
      "Officer": 7974,
      "tax": 7975,
      "Eyes": 7976,
      "ro": 7977,
      "Ad": 7978,
      "Harald": 7979,
      "lago": 7980,
      "avaient": 7981,
      "Alberta": 7982,
      "##rski": 7983,
      "recognized": 7984,
      "suivante": 7985,
      "signal": 7986,
      "##lung": 7987,
      "##cano": 7988,
      "Venus": 7989,
      "##logi": 7990,
      "##sini": 7991,
      "aga": 7992,
      "weight": 7993,
      "outra": 7994,
      "ait": 7995,
      "roll": 7996,
      "265": 7997,
      "##room": 7998,
      "mora": 7999,
      "Ahmed": 8000,
      "fece": 8001,
      "yards": 8002,
      "Industry": 8003,
      "##uhan": 8004,
      "##ellen": 8005,
      "Portuguese": 8006,
      "Kultur": 8007,
      "Flight": 8008,
      "Nebraska": 8009,
      "growing": 8010,
      "Castilla": 8011,
      "govern": 8012,
      "agreed": 8013,
      "cea": 8014,
      "##öt": 8015,
      "##oria": 8016,
      "liv": 8017,
      "1773": 8018,
      "Arsenal": 8019,
      "##ots": 8020,
      "##nae": 8021,
      "presence": 8022,
      "generation": 8023,
      "##rdo": 8024,
      "Labour": 8025,
      "spread": 8026,
      "262": 8027,
      "##hou": 8028,
      "Syria": 8029,
      "Wing": 8030,
      "Crown": 8031,
      "##fat": 8032,
      "Nat": 8033,
      "compared": 8034,
      "Tyler": 8035,
      "Quan": 8036,
      "Tai": 8037,
      "Fiction": 8038,
      "##gra": 8039,
      "##elli": 8040,
      "Yves": 8041,
      "Annie": 8042,
      "Work": 8043,
      "Regions": 8044,
      "228": 8045,
      "##wing": 8046,
      "##omo": 8047,
      "##niki": 8048,
      "Curtis": 8049,
      "Chemical": 8050,
      "##amen": 8051,
      "politics": 8052,
      "Jessica": 8053,
      "520": 8054,
      "##mond": 8055,
      "Tout": 8056,
      "joint": 8057,
      "##oh": 8058,
      "##board": 8059,
      "##nata": 8060,
      "Basketball": 8061,
      "jam": 8062,
      "rang": 8063,
      "Fair": 8064,
      "mg": 8065,
      "##éré": 8066,
      "chose": 8067,
      "greater": 8068,
      "##eh": 8069,
      "reduced": 8070,
      "##iy": 8071,
      "capo": 8072,
      "243": 8073,
      "##uen": 8074,
      "soldats": 8075,
      "conquista": 8076,
      "occidentale": 8077,
      "comedy": 8078,
      "occurred": 8079,
      "##kers": 8080,
      "##fs": 8081,
      "resources": 8082,
      "##lés": 8083,
      "##gger": 8084,
      "##rom": 8085,
      "Teams": 8086,
      "##dina": 8087,
      "##cato": 8088,
      "##fera": 8089,
      "##lav": 8090,
      "Normandie": 8091,
      "##ders": 8092,
      "causes": 8093,
      "Commander": 8094,
      "participation": 8095,
      "negative": 8096,
      "##î": 8097,
      "justice": 8098,
      "différentes": 8099,
      "Otte": 8100,
      "##mata": 8101,
      "Around": 8102,
      "Liebe": 8103,
      "Conrad": 8104,
      "Tree": 8105,
      "233": 8106,
      "##antes": 8107,
      "Nei": 8108,
      "Cohen": 8109,
      "RAF": 8110,
      "Nazi": 8111,
      "Miranda": 8112,
      "Schneider": 8113,
      "325": 8114,
      "variable": 8115,
      "lai": 8116,
      "Stadion": 8117,
      "##rile": 8118,
      "billion": 8119,
      "cycle": 8120,
      "voie": 8121,
      "245": 8122,
      "Denmark": 8123,
      "##šte": 8124,
      "lever": 8125,
      "Kid": 8126,
      "Literature": 8127,
      "219": 8128,
      "élections": 8129,
      "Nie": 8130,
      "claims": 8131,
      "gain": 8132,
      "1760": 8133,
      "##nii": 8134,
      "Madame": 8135,
      "noir": 8136,
      "Tiger": 8137,
      "background": 8138,
      "Ridge": 8139,
      "##ugh": 8140,
      "nominated": 8141,
      "##cent": 8142,
      "##ús": 8143,
      "Soccer": 8144,
      "##lane": 8145,
      "naval": 8146,
      "cal": 8147,
      "Norton": 8148,
      "driver": 8149,
      "resta": 8150,
      "##otta": 8151,
      "paid": 8152,
      "313": 8153,
      "Leslie": 8154,
      "présence": 8155,
      "##hem": 8156,
      "vera": 8157,
      "Jung": 8158,
      "Stories": 8159,
      "##minister": 8160,
      "Hof": 8161,
      "1763": 8162,
      "Pearl": 8163,
      "##ief": 8164,
      "##ři": 8165,
      "patients": 8166,
      "##ói": 8167,
      "##star": 8168,
      "Helmut": 8169,
      "expected": 8170,
      "draw": 8171,
      "##key": 8172,
      "winter": 8173,
      "Orlando": 8174,
      "établissements": 8175,
      "##zek": 8176,
      "##yat": 8177,
      "Android": 8178,
      "##uja": 8179,
      "Buffalo": 8180,
      "œuvres": 8181,
      "mph": 8182,
      "teu": 8183,
      "Madagascar": 8184,
      "Luca": 8185,
      "Switzerland": 8186,
      "letters": 8187,
      "jeunes": 8188,
      "##igh": 8189,
      "Ziel": 8190,
      "taught": 8191,
      "##ahan": 8192,
      "##alla": 8193,
      "hinter": 8194,
      "certaines": 8195,
      "##ond": 8196,
      "Kuala": 8197,
      "marque": 8198,
      "Hampshire": 8199,
      "Ca": 8200,
      "acres": 8201,
      "ven": 8202,
      "##isce": 8203,
      "České": 8204,
      "twenty": 8205,
      "##onie": 8206,
      "spring": 8207,
      "##cate": 8208,
      "humans": 8209,
      "Stalin": 8210,
      "Infantry": 8211,
      "Native": 8212,
      "##selt": 8213,
      "Sr": 8214,
      "applications": 8215,
      "environment": 8216,
      "audience": 8217,
      "gisa": 8218,
      "secondary": 8219,
      "Bennett": 8220,
      "##zone": 8221,
      "Kosovo": 8222,
      "Augusto": 8223,
      "Server": 8224,
      "##tul": 8225,
      "Josh": 8226,
      "295": 8227,
      "suffered": 8228,
      "bring": 8229,
      "##gre": 8230,
      "instruments": 8231,
      "simply": 8232,
      "colonial": 8233,
      "providing": 8234,
      "##yor": 8235,
      "copies": 8236,
      "donné": 8237,
      "##indo": 8238,
      "expanded": 8239,
      "Loma": 8240,
      "Defense": 8241,
      "306": 8242,
      "damage": 8243,
      "##umu": 8244,
      "##tati": 8245,
      "identified": 8246,
      "##tog": 8247,
      "251": 8248,
      "##eres": 8249,
      "Emmy": 8250,
      "##eris": 8251,
      "##ew": 8252,
      "Verde": 8253,
      "something": 8254,
      "##ops": 8255,
      "Beyond": 8256,
      "Match": 8257,
      "Nassau": 8258,
      "fly": 8259,
      "Geometridae": 8260,
      "entreprise": 8261,
      "Palmer": 8262,
      "Mine": 8263,
      "##ij": 8264,
      "Ghost": 8265,
      "##ates": 8266,
      "Eo": 8267,
      "##ød": 8268,
      "##ír": 8269,
      "002": 8270,
      "Zero": 8271,
      "##führer": 8272,
      "Romeo": 8273,
      "Jun": 8274,
      "##ël": 8275,
      "link": 8276,
      "graf": 8277,
      "##naire": 8278,
      "Glenn": 8279,
      "##cen": 8280,
      "Thai": 8281,
      "Gloria": 8282,
      "Darwin": 8283,
      "locales": 8284,
      "##rts": 8285,
      "229": 8286,
      "ap": 8287,
      "##ydd": 8288,
      "301": 8289,
      "##rman": 8290,
      "PTT": 8291,
      "fish": 8292,
      "terres": 8293,
      "prof": 8294,
      "##phone": 8295,
      "restaurant": 8296,
      "statue": 8297,
      "##vara": 8298,
      "##tés": 8299,
      "Illustrated": 8300,
      "##pper": 8301,
      "beta": 8302,
      "##dro": 8303,
      "254": 8304,
      "Edwin": 8305,
      "Concert": 8306,
      "twice": 8307,
      "430": 8308,
      "304": 8309,
      "##git": 8310,
      "Basel": 8311,
      "Anti": 8312,
      "Ela": 8313,
      "unico": 8314,
      "parallel": 8315,
      "finish": 8316,
      "receive": 8317,
      "##cation": 8318,
      "Germain": 8319,
      "Article": 8320,
      "##ště": 8321,
      "actrice": 8322,
      "##orn": 8323,
      "vive": 8324,
      "##ái": 8325,
      "##atus": 8326,
      "suit": 8327,
      "236": 8328,
      "Vera": 8329,
      "professeur": 8330,
      "Hopkins": 8331,
      "Giacomo": 8332,
      "Hai": 8333,
      "##rida": 8334,
      "Dio": 8335,
      "Seoul": 8336,
      "##ś": 8337,
      "##bang": 8338,
      "Josep": 8339,
      "lorsque": 8340,
      "violence": 8341,
      "##lere": 8342,
      "Father": 8343,
      "Honor": 8344,
      "Gérard": 8345,
      "hop": 8346,
      "architect": 8347,
      "Ibn": 8348,
      "Stefano": 8349,
      "##tr": 8350,
      "Bois": 8351,
      "Intel": 8352,
      "Kai": 8353,
      "##iens": 8354,
      "##ake": 8355,
      "int": 8356,
      "Tibet": 8357,
      "Solar": 8358,
      "désormais": 8359,
      "Seu": 8360,
      "Claudio": 8361,
      "Track": 8362,
      "covers": 8363,
      "410": 8364,
      "Companion": 8365,
      "##tics": 8366,
      "télévisée": 8367,
      "##zzo": 8368,
      "##iam": 8369,
      "##stel": 8370,
      "propre": 8371,
      "Banks": 8372,
      "IOC": 8373,
      "##inas": 8374,
      "##aw": 8375,
      "hija": 8376,
      "facto": 8377,
      "coi": 8378,
      "246": 8379,
      "##dium": 8380,
      "##dita": 8381,
      "Training": 8382,
      "##aries": 8383,
      "Ella": 8384,
      "usage": 8385,
      "##ńska": 8386,
      "begins": 8387,
      "Gil": 8388,
      "allows": 8389,
      "Then": 8390,
      "voit": 8391,
      "Origins": 8392,
      "Anno": 8393,
      "composer": 8394,
      "Bd": 8395,
      "##lidae": 8396,
      "Lucy": 8397,
      "##zki": 8398,
      "traffic": 8399,
      "attacks": 8400,
      "##ók": 8401,
      "Uno": 8402,
      "Rosario": 8403,
      "Jews": 8404,
      "titles": 8405,
      "##verein": 8406,
      "engineer": 8407,
      "outre": 8408,
      "minimum": 8409,
      "##rden": 8410,
      "hu": 8411,
      "##dura": 8412,
      "Fútbol": 8413,
      "##lov": 8414,
      "Room": 8415,
      "Belgium": 8416,
      "AFC": 8417,
      "situated": 8418,
      "##dí": 8419,
      "villes": 8420,
      "##inis": 8421,
      "Want": 8422,
      "##uca": 8423,
      "Pascal": 8424,
      "249": 8425,
      "creation": 8426,
      "kept": 8427,
      "##iah": 8428,
      "Eugène": 8429,
      "Hero": 8430,
      "Nagy": 8431,
      "cinéma": 8432,
      "Authority": 8433,
      "terrain": 8434,
      "moyenne": 8435,
      "intitulé": 8436,
      "Socorro": 8437,
      "commission": 8438,
      "Arabic": 8439,
      "Malcolm": 8440,
      "newly": 8441,
      "matchs": 8442,
      "UN": 8443,
      "ceinture": 8444,
      "Dawn": 8445,
      "épisodes": 8446,
      "Garcia": 8447,
      "Palermo": 8448,
      "Luc": 8449,
      "deep": 8450,
      "Gymnasium": 8451,
      "connue": 8452,
      "Saudi": 8453,
      "Belle": 8454,
      "Tang": 8455,
      "Artist": 8456,
      "Chem": 8457,
      "reports": 8458,
      "Alba": 8459,
      "##ég": 8460,
      "Beograd": 8461,
      "##angan": 8462,
      "Nathan": 8463,
      "Globe": 8464,
      "Félix": 8465,
      "resulted": 8466,
      "##ece": 8467,
      "existing": 8468,
      "Stan": 8469,
      "portion": 8470,
      "nuit": 8471,
      "organizations": 8472,
      "theme": 8473,
      "Michele": 8474,
      "##lada": 8475,
      "towns": 8476,
      "##att": 8477,
      "Frédéric": 8478,
      "Yeni": 8479,
      "organ": 8480,
      "camera": 8481,
      "##stic": 8482,
      "Upon": 8483,
      "Tá": 8484,
      "##tida": 8485,
      "##jai": 8486,
      "questions": 8487,
      "orientale": 8488,
      "##jt": 8489,
      "wall": 8490,
      "##ivos": 8491,
      "Díaz": 8492,
      "##anan": 8493,
      "Hardy": 8494,
      "euros": 8495,
      "##uin": 8496,
      "##liste": 8497,
      "##eck": 8498,
      "Nina": 8499,
      "Julien": 8500,
      "éditions": 8501,
      "272": 8502,
      "Comté": 8503,
      "petits": 8504,
      "unes": 8505,
      "proto": 8506,
      "##vole": 8507,
      "Make": 8508,
      "Orient": 8509,
      "Advanced": 8510,
      "resulting": 8511,
      "Far": 8512,
      "Patricia": 8513,
      "##alan": 8514,
      "Bischof": 8515,
      "ratio": 8516,
      "reçoit": 8517,
      "legge": 8518,
      "Guitar": 8519,
      "Fund": 8520,
      "piece": 8521,
      "buried": 8522,
      "authority": 8523,
      "##graphie": 8524,
      "##lek": 8525,
      "conte": 8526,
      "suivant": 8527,
      "307": 8528,
      "sign": 8529,
      "Alfredo": 8530,
      "description": 8531,
      "develop": 8532,
      "##zés": 8533,
      "Vega": 8534,
      "##dek": 8535,
      "##tai": 8536,
      "élu": 8537,
      "##sida": 8538,
      "orchestra": 8539,
      "logements": 8540,
      "légales": 8541,
      "Beautiful": 8542,
      "1768": 8543,
      "Eugene": 8544,
      "droite": 8545,
      "Making": 8546,
      "Nuevo": 8547,
      "applied": 8548,
      "coup": 8549,
      "003": 8550,
      "##toria": 8551,
      "ty": 8552,
      "Chuck": 8553,
      "invasion": 8554,
      "Private": 8555,
      "Española": 8556,
      "effective": 8557,
      "##lä": 8558,
      "visible": 8559,
      "Luther": 8560,
      "titular": 8561,
      "Richter": 8562,
      "seats": 8563,
      "##the": 8564,
      "learning": 8565,
      "Martha": 8566,
      "boy": 8567,
      "Pa": 8568,
      "fia": 8569,
      "##tge": 8570,
      "activité": 8571,
      "##rja": 8572,
      "arba": 8573,
      "Nice": 8574,
      "painting": 8575,
      "reality": 8576,
      "lieutenant": 8577,
      "brigade": 8578,
      "doctor": 8579,
      "##ilen": 8580,
      "##mmer": 8581,
      "iTunes": 8582,
      "##iker": 8583,
      "IT": 8584,
      "guest": 8585,
      "##jk": 8586,
      "gener": 8587,
      "granted": 8588,
      "Oblast": 8589,
      "info": 8590,
      "marked": 8591,
      "##osta": 8592,
      "##kta": 8593,
      "connected": 8594,
      "257": 8595,
      "lama": 8596,
      "rouge": 8597,
      "##tern": 8598,
      "##jia": 8599,
      "##ffe": 8600,
      "##mb": 8601,
      "##halt": 8602,
      "##nam": 8603,
      "mata": 8604,
      "vue": 8605,
      "tells": 8606,
      "surrounding": 8607,
      "639": 8608,
      "necessary": 8609,
      "Honduras": 8610,
      "Edge": 8611,
      "MW": 8612,
      "##uel": 8613,
      "##zation": 8614,
      "Range": 8615,
      "inspired": 8616,
      "##mic": 8617,
      "##gge": 8618,
      "Michelle": 8619,
      "arc": 8620,
      "Leiden": 8621,
      "advanced": 8622,
      "Lorraine": 8623,
      "##hur": 8624,
      "receptor": 8625,
      "Baseball": 8626,
      "groupes": 8627,
      "Jeremy": 8628,
      "##nds": 8629,
      "##dica": 8630,
      "##owski": 8631,
      "271": 8632,
      "##gat": 8633,
      "courses": 8634,
      "radar": 8635,
      "Comme": 8636,
      "safety": 8637,
      "##pon": 8638,
      "Berger": 8639,
      "trad": 8640,
      "##aat": 8641,
      "##akan": 8642,
      "principali": 8643,
      "##IN": 8644,
      "##itus": 8645,
      "Academic": 8646,
      "##qi": 8647,
      "##arten": 8648,
      "##SA": 8649,
      "Nicole": 8650,
      "Lion": 8651,
      "Dana": 8652,
      "##aten": 8653,
      "Léon": 8654,
      "ranking": 8655,
      "tried": 8656,
      "Que": 8657,
      "##down": 8658,
      "Sala": 8659,
      "sq": 8660,
      "Magdalena": 8661,
      "303": 8662,
      "bala": 8663,
      "##gni": 8664,
      "Start": 8665,
      "237": 8666,
      "Chine": 8667,
      "completely": 8668,
      "##ète": 8669,
      "mandat": 8670,
      "##illo": 8671,
      "##tory": 8672,
      "##verse": 8673,
      "##chy": 8674,
      "Continental": 8675,
      "Terre": 8676,
      "lau": 8677,
      "tao": 8678,
      "MP": 8679,
      "ray": 8680,
      "Jesse": 8681,
      "Montgomery": 8682,
      "fully": 8683,
      "Vista": 8684,
      "Omar": 8685,
      "disc": 8686,
      "##anu": 8687,
      "Adelaide": 8688,
      "vehicles": 8689,
      "yard": 8690,
      "sette": 8691,
      "Maritime": 8692,
      "block": 8693,
      "333": 8694,
      "rio": 8695,
      "multimedia": 8696,
      "containing": 8697,
      "##eux": 8698,
      "FBI": 8699,
      "##čko": 8700,
      "sides": 8701,
      "plata": 8702,
      "##rane": 8703,
      "Marion": 8704,
      "MA": 8705,
      "wins": 8706,
      "rejoint": 8707,
      "UCI": 8708,
      "##gno": 8709,
      "##øy": 8710,
      "teaching": 8711,
      "Liberty": 8712,
      "##iter": 8713,
      "460": 8714,
      "242": 8715,
      "##bing": 8716,
      "##lny": 8717,
      "unknown": 8718,
      "##nten": 8719,
      "##ender": 8720,
      "Tam": 8721,
      "##hme": 8722,
      "1779": 8723,
      "Emilio": 8724,
      "huit": 8725,
      "obtained": 8726,
      "scoring": 8727,
      "confirmed": 8728,
      "##gren": 8729,
      "Munich": 8730,
      "axe": 8731,
      "##nci": 8732,
      "nouveaux": 8733,
      "Petra": 8734,
      "core": 8735,
      "EC": 8736,
      "Angela": 8737,
      "généralement": 8738,
      "Royaume": 8739,
      "Tennis": 8740,
      "##mans": 8741,
      "1740": 8742,
      "populaire": 8743,
      "288": 8744,
      "vehicle": 8745,
      "##lius": 8746,
      "##lava": 8747,
      "talent": 8748,
      "methods": 8749,
      "Albrecht": 8750,
      "ore": 8751,
      "edited": 8752,
      "##egen": 8753,
      "Communications": 8754,
      "finalement": 8755,
      "Dios": 8756,
      "maig": 8757,
      "injury": 8758,
      "##ware": 8759,
      "claim": 8760,
      "##cono": 8761,
      "Bien": 8762,
      "Steel": 8763,
      "rend": 8764,
      "EMI": 8765,
      "##ares": 8766,
      "younger": 8767,
      "showed": 8768,
      "##vez": 8769,
      "1753": 8770,
      "Welsh": 8771,
      "##dle": 8772,
      "Günther": 8773,
      "##nca": 8774,
      "##meter": 8775,
      "bord": 8776,
      "Ainsi": 8777,
      "285": 8778,
      "unas": 8779,
      "##jah": 8780,
      "##stre": 8781,
      "##érer": 8782,
      "noto": 8783,
      "euren": 8784,
      "##eks": 8785,
      "Jamie": 8786,
      "baza": 8787,
      "Policy": 8788,
      "lès": 8789,
      "Hay": 8790,
      "##ï": 8791,
      "Search": 8792,
      "starring": 8793,
      "##ight": 8794,
      "troupes": 8795,
      "disponible": 8796,
      "##cm": 8797,
      "CDU": 8798,
      "##enn": 8799,
      "##öld": 8800,
      "Becker": 8801,
      "fighting": 8802,
      "visit": 8803,
      "##lini": 8804,
      "Branch": 8805,
      "mine": 8806,
      "translation": 8807,
      "Emilia": 8808,
      "##mission": 8809,
      "##chia": 8810,
      "Evil": 8811,
      "Universe": 8812,
      "##av": 8813,
      "Dieu": 8814,
      "Still": 8815,
      "economy": 8816,
      "##eon": 8817,
      "Bratislava": 8818,
      "Yorkshire": 8819,
      "Guillermo": 8820,
      "##quet": 8821,
      "Sieg": 8822,
      "Us": 8823,
      "##ptera": 8824,
      "SD": 8825,
      "244": 8826,
      "Testament": 8827,
      "##awa": 8828,
      "##itos": 8829,
      "principals": 8830,
      "limite": 8831,
      "Chan": 8832,
      "classement": 8833,
      "labor": 8834,
      "étude": 8835,
      "Cannes": 8836,
      "Konrad": 8837,
      "Bo": 8838,
      "##tand": 8839,
      "Brooks": 8840,
      "oldest": 8841,
      "chairman": 8842,
      "Tale": 8843,
      "Flying": 8844,
      "committee": 8845,
      "daily": 8846,
      "Battalion": 8847,
      "CV": 8848,
      "pair": 8849,
      "##yl": 8850,
      "Stade": 8851,
      "Engels": 8852,
      "household": 8853,
      "##olt": 8854,
      "18th": 8855,
      "suggested": 8856,
      "Ranking": 8857,
      "Grove": 8858,
      "Moselle": 8859,
      "##unta": 8860,
      "kat": 8861,
      "##vati": 8862,
      "historie": 8863,
      "commander": 8864,
      "instrumental": 8865,
      "exchange": 8866,
      "Alpha": 8867,
      "##iona": 8868,
      "Censo": 8869,
      "dates": 8870,
      "Forbes": 8871,
      "315": 8872,
      "bor": 8873,
      "officials": 8874,
      "Norsk": 8875,
      "forest": 8876,
      "pinyin": 8877,
      "champions": 8878,
      "Ex": 8879,
      "Hubert": 8880,
      "##rich": 8881,
      "##odu": 8882,
      "Wahl": 8883,
      "##cted": 8884,
      "Roosevelt": 8885,
      "Bernardo": 8886,
      "##rlo": 8887,
      "##ána": 8888,
      "##isto": 8889,
      "facility": 8890,
      "Too": 8891,
      "subsp": 8892,
      "Interview": 8893,
      "##anja": 8894,
      "Tallinn": 8895,
      "unu": 8896,
      "##agi": 8897,
      "hom": 8898,
      "##cre": 8899,
      "tower": 8900,
      "##zina": 8901,
      "##mate": 8902,
      "kai": 8903,
      "probablement": 8904,
      "Horse": 8905,
      "##enda": 8906,
      "arrive": 8907,
      "losing": 8908,
      "Lower": 8909,
      "##rita": 8910,
      "calle": 8911,
      "##iat": 8912,
      "variant": 8913,
      "##rzy": 8914,
      "trop": 8915,
      "Herzog": 8916,
      "girls": 8917,
      "documentary": 8918,
      "##col": 8919,
      "Choice": 8920,
      "Til": 8921,
      "##tsi": 8922,
      "seo": 8923,
      "retrouve": 8924,
      "Arabia": 8925,
      "Shadow": 8926,
      "##low": 8927,
      "Chase": 8928,
      "##ened": 8929,
      "beat": 8930,
      "##lni": 8931,
      "Pologne": 8932,
      "think": 8933,
      "##put": 8934,
      "Deutsch": 8935,
      "chance": 8936,
      "##ulation": 8937,
      "Stanisław": 8938,
      "critique": 8939,
      "Ellis": 8940,
      "Betty": 8941,
      "matter": 8942,
      "étape": 8943,
      "rank": 8944,
      "Vienne": 8945,
      "historian": 8946,
      "stadium": 8947,
      "tie": 8948,
      "programming": 8949,
      "##iae": 8950,
      "##hia": 8951,
      "dis": 8952,
      "hits": 8953,
      "hands": 8954,
      "WTA": 8955,
      "##rán": 8956,
      "lit": 8957,
      "Auvergne": 8958,
      "comté": 8959,
      "vede": 8960,
      "Rich": 8961,
      "reason": 8962,
      "dollars": 8963,
      "DL": 8964,
      "Flores": 8965,
      "Giro": 8966,
      "Ruiz": 8967,
      "Duncan": 8968,
      "##glia": 8969,
      "##ście": 8970,
      "Axel": 8971,
      "fundamental": 8972,
      "visita": 8973,
      "##iran": 8974,
      "##dum": 8975,
      "F1": 8976,
      "Amazon": 8977,
      "GT": 8978,
      "concernant": 8979,
      "mental": 8980,
      "247": 8981,
      "chosen": 8982,
      "routes": 8983,
      "##sio": 8984,
      "incident": 8985,
      "Railroad": 8986,
      "Eagle": 8987,
      "##iment": 8988,
      "theatre": 8989,
      "##jak": 8990,
      "Nama": 8991,
      "##gor": 8992,
      "Trek": 8993,
      "##rija": 8994,
      "lyrics": 8995,
      "##sts": 8996,
      "Deportivo": 8997,
      "##unu": 8998,
      "##cc": 8999,
      "##orum": 9000,
      "##rla": 9001,
      "##bbe": 9002,
      "Forever": 9003,
      "Jupiter": 9004,
      "##azi": 9005,
      "Newcastle": 9006,
      "##kach": 9007,
      "1660": 9008,
      "Hernandez": 9009,
      "Jej": 9010,
      "Mk": 9011,
      "406": 9012,
      "follow": 9013,
      "##ête": 9014,
      "##ph": 9015,
      "1648": 9016,
      "Lambert": 9017,
      "Suba": 9018,
      "VL": 9019,
      "Vor": 9020,
      "peace": 9021,
      "DS": 9022,
      "##graphy": 9023,
      "##lán": 9024,
      "composé": 9025,
      "##dil": 9026,
      "ove": 9027,
      "##nais": 9028,
      "entra": 9029,
      "##sso": 9030,
      "succeeded": 9031,
      "##kis": 9032,
      "Angels": 9033,
      "Palma": 9034,
      "Even": 9035,
      "Jürgen": 9036,
      "##iding": 9037,
      "ama": 9038,
      "arms": 9039,
      "Kids": 9040,
      "Snow": 9041,
      "##jna": 9042,
      "captain": 9043,
      "blues": 9044,
      "laws": 9045,
      "Jos": 9046,
      "##rge": 9047,
      "##sée": 9048,
      "Professional": 9049,
      "##eja": 9050,
      "##isse": 9051,
      "xe": 9052,
      "##graph": 9053,
      "Guido": 9054,
      "display": 9055,
      "serait": 9056,
      "Horn": 9057,
      "centra": 9058,
      "##tim": 9059,
      "Porter": 9060,
      "Croix": 9061,
      "Fast": 9062,
      "##cens": 9063,
      "##ío": 9064,
      "##ovo": 9065,
      "##itate": 9066,
      "##von": 9067,
      "Noctuidae": 9068,
      "##lü": 9069,
      "bande": 9070,
      "##rent": 9071,
      "bonus": 9072,
      "Évolution": 9073,
      "##cci": 9074,
      "medicine": 9075,
      "Rang": 9076,
      "peste": 9077,
      "##ith": 9078,
      "amateur": 9079,
      "mix": 9080,
      "Animal": 9081,
      "Gulf": 9082,
      "##ogi": 9083,
      "headquarters": 9084,
      "Ja": 9085,
      "dele": 9086,
      "Pokémon": 9087,
      "Dominique": 9088,
      "##asta": 9089,
      "viri": 9090,
      "##colo": 9091,
      "entitled": 9092,
      "générale": 9093,
      "entrée": 9094,
      "functions": 9095,
      "holds": 9096,
      "latino": 9097,
      "décide": 9098,
      "livres": 9099,
      "Cristina": 9100,
      "Fiat": 9101,
      "##yes": 9102,
      "Min": 9103,
      "##đe": 9104,
      "##stik": 9105,
      "achieved": 9106,
      "Stil": 9107,
      "##rti": 9108,
      "authorities": 9109,
      "##hé": 9110,
      "##rades": 9111,
      "Circle": 9112,
      "Titan": 9113,
      "Jin": 9114,
      "390": 9115,
      "##mbang": 9116,
      "quarter": 9117,
      "enda": 9118,
      "aa": 9119,
      "Nu": 9120,
      "##oan": 9121,
      "heures": 9122,
      "Ottoman": 9123,
      "Thanh": 9124,
      "inhabitants": 9125,
      "##vei": 9126,
      "Obama": 9127,
      "allowing": 9128,
      "Haut": 9129,
      "1950s": 9130,
      "Broadcasting": 9131,
      "politiques": 9132,
      "espace": 9133,
      "Lille": 9134,
      "Ada": 9135,
      "zero": 9136,
      "##ssi": 9137,
      "##èr": 9138,
      "Regina": 9139,
      "depi": 9140,
      "adaptation": 9141,
      "passes": 9142,
      "##sne": 9143,
      "disputa": 9144,
      "Sudan": 9145,
      "Market": 9146,
      "Vid": 9147,
      "Filippo": 9148,
      "273": 9149,
      "##eran": 9150,
      "fonte": 9151,
      "cm³": 9152,
      "Circuit": 9153,
      "##fier": 9154,
      "Göteborg": 9155,
      "Amérique": 9156,
      "##sley": 9157,
      "unica": 9158,
      "Staat": 9159,
      "relatively": 9160,
      "asp": 9161,
      "sum": 9162,
      "Without": 9163,
      "Israeli": 9164,
      "draft": 9165,
      "LINEAR": 9166,
      "Russie": 9167,
      "fields": 9168,
      "Nationale": 9169,
      "##ceu": 9170,
      "Crystal": 9171,
      "airport": 9172,
      "escala": 9173,
      "Hochschule": 9174,
      "##dern": 9175,
      "Simone": 9176,
      "266": 9177,
      "ann": 9178,
      "##aca": 9179,
      "##vna": 9180,
      "Sør": 9181,
      "Section": 9182,
      "concerts": 9183,
      "solution": 9184,
      "##glio": 9185,
      "spot": 9186,
      "créée": 9187,
      "stil": 9188,
      "résultats": 9189,
      "Movement": 9190,
      "utiliza": 9191,
      "##bius": 9192,
      "montre": 9193,
      "##nces": 9194,
      "Flash": 9195,
      "anv": 9196,
      "##quer": 9197,
      "Christina": 9198,
      "##rino": 9199,
      "Chang": 9200,
      "323": 9201,
      "coll": 9202,
      "identity": 9203,
      "##cata": 9204,
      "Wellington": 9205,
      "##aco": 9206,
      "Luís": 9207,
      "Aviation": 9208,
      "##quia": 9209,
      "target": 9210,
      "##öl": 9211,
      "##cera": 9212,
      "beyond": 9213,
      "Eye": 9214,
      "maire": 9215,
      "##ex": 9216,
      "268": 9217,
      "##°C": 9218,
      "absence": 9219,
      "##sak": 9220,
      "personnage": 9221,
      "Several": 9222,
      "steel": 9223,
      "Braunschweig": 9224,
      "263": 9225,
      "imperial": 9226,
      "302": 9227,
      "needs": 9228,
      "Hung": 9229,
      "Walk": 9230,
      "façon": 9231,
      "auprès": 9232,
      "Pavel": 9233,
      "##euse": 9234,
      "nº": 9235,
      "fishes": 9236,
      "occupied": 9237,
      "Chairman": 9238,
      "##rot": 9239,
      "Castillo": 9240,
      "Mill": 9241,
      "Jake": 9242,
      "neste": 9243,
      "##ladi": 9244,
      "##eter": 9245,
      "Novo": 9246,
      "Leeds": 9247,
      "Adventures": 9248,
      "##bah": 9249,
      "Jensen": 9250,
      "Beat": 9251,
      "tank": 9252,
      "6000": 9253,
      "trees": 9254,
      "Ghana": 9255,
      "write": 9256,
      "##pak": 9257,
      "Scénario": 9258,
      "Revue": 9259,
      "Bogotá": 9260,
      "Bonaparte": 9261,
      "Berry": 9262,
      "rapidement": 9263,
      "Draft": 9264,
      "rise": 9265,
      "##nig": 9266,
      "contributions": 9267,
      "astéroïdes": 9268,
      "##cket": 9269,
      "1771": 9270,
      "fauna": 9271,
      "##rine": 9272,
      "zom": 9273,
      "Maya": 9274,
      "Return": 9275,
      "Guard": 9276,
      "286": 9277,
      "Dreams": 9278,
      "##ót": 9279,
      "##ined": 9280,
      "##ites": 9281,
      "pt": 9282,
      "morning": 9283,
      "arma": 9284,
      "plats": 9285,
      "brothers": 9286,
      "##rza": 9287,
      "domain": 9288,
      "Tribunal": 9289,
      "Manager": 9290,
      "st": 9291,
      "bands": 9292,
      "quant": 9293,
      "##arse": 9294,
      "voyage": 9295,
      "governor": 9296,
      "Svenska": 9297,
      "Igor": 9298,
      "Low": 9299,
      "282": 9300,
      "Economics": 9301,
      "Azerbaijan": 9302,
      "issu": 9303,
      "Consejo": 9304,
      "1766": 9305,
      "Laguna": 9306,
      "##tine": 9307,
      "découvert": 9308,
      "fond": 9309,
      "missions": 9310,
      "supérieur": 9311,
      "perform": 9312,
      "##aci": 9313,
      "1769": 9314,
      "Crazy": 9315,
      "frequently": 9316,
      "##50": 9317,
      "##sca": 9318,
      "Cemetery": 9319,
      "276": 9320,
      "Hann": 9321,
      "Intelligence": 9322,
      "len": 9323,
      "comptait": 9324,
      "conde": 9325,
      "Travel": 9326,
      "bought": 9327,
      "##ufen": 9328,
      "##uran": 9329,
      "moth": 9330,
      "##xt": 9331,
      "277": 9332,
      "Brand": 9333,
      "Olga": 9334,
      "##spor": 9335,
      "Philippine": 9336,
      "##ID": 9337,
      "Dieter": 9338,
      "Antoni": 9339,
      "clan": 9340,
      "Clube": 9341,
      "##gir": 9342,
      "Block": 9343,
      "sixth": 9344,
      "supply": 9345,
      "##sor": 9346,
      "Bronze": 9347,
      "##pol": 9348,
      "274": 9349,
      "##pare": 9350,
      "occupation": 9351,
      "Albania": 9352,
      "1765": 9353,
      "##ringen": 9354,
      "Sogn": 9355,
      "Ki": 9356,
      "respect": 9357,
      "Deutscher": 9358,
      "Seventh": 9359,
      "Papua": 9360,
      "liberal": 9361,
      "saga": 9362,
      "##olla": 9363,
      "Mass": 9364,
      "dur": 9365,
      "Göttingen": 9366,
      "##pada": 9367,
      "Things": 9368,
      "##kah": 9369,
      "##zko": 9370,
      "Phi": 9371,
      "##nato": 9372,
      "év": 9373,
      "Toyota": 9374,
      "##enes": 9375,
      "Cada": 9376,
      "Paradise": 9377,
      "##łe": 9378,
      "Pe": 9379,
      "holding": 9380,
      "portant": 9381,
      "Woods": 9382,
      "##enburg": 9383,
      "settled": 9384,
      "##museum": 9385,
      "Staff": 9386,
      "Mayer": 9387,
      "Salzburg": 9388,
      "##istic": 9389,
[...]
